1111111010101101
1111111100000110
11000111
101001100
1111111110100100
1111111111110000
10011001
1111111110110100
1111111100001100
1111111111110011
1111111011100111
10101101
1000001100
1101010001
1011010
1111111101011101
1111111011101010
1111111101011011
100000
1111111100101000
11011111
1111111111000000
1111101
1100110
11110
10100001
1111111101110101
1111111110001101
1111111111110011
1111111111101111
10011001
1111111011010100
1010110010
10011100100
101101010101
110001010100
100101001111
111011010001
1000000101001
1011000101111
1010111010101
1010010101010
10101010
101110010100
101011000100
110110110000
110000101101
10101101001
101000110000
101000011100
101100110101
100010000001
100100000
1111111100001100
10111010
1000100
10100001
101001101
110101
11001001001
11010100110
11000110100
100011011110
1001100010110
1001111010011
1010101000001
1100001011001
10101001001101
1011001011000
111001000000
1001111010000
100001101001
10100100
1111100110100000
1111110110100100
111101010000
11100111101
10001011
1111111011111000
101110011100
101001111001
10010111001
1111111100101100
11111
1111111110011001
1111111100100001
1111111001101101
100110111110
1100111111
111001111001
1001010011110
1100111111110
1010101010010
1010000111011
1000001010101
110111100000
1000110000111
10000101010010
1001101110111
110001010001
11001110000
1111101010101001
1111000110011000
1111011100000111
1111100001011100
1111010011011100
1111011101001111
1111100110111111
1111101011101101
1010010111
1111110011001011
110000
1111111011111000
111110011
1011010010
1111110011010001
1111101101110111
1111110000
111110100011
1010001001110
1011010110010
1110001010010
101101100101
10000100101
110000100101
101000111010
101101001010
100010001011
10000110101
10111111000
1111111110011010
1111100100110011
1111111000101101
1111011001111100
1111000110011001
1111001010111100
1111001010110011
1111110100110000
10110000101
101111100011
1111111110010010
1111111110101000
11000000001
100001100010
111110011
1111101110000101
1111000100
1111101110110010
1111011000000101
1111110011011010
100000
1010001100
1010110110
1100101000
1111111110100001
1001111
100100110
1111111111001100
10100100
1101010111
1001000
1011101110
11010111
1111111101101111
1111100000110100
1111110110001101
10101010111
10111011101
1111111100110101
1011111111
1111110011111101
10111101
1111111110001110
10110011000
1111111101011100
1111111000111100
1111111001101100
10101000
1111111100101111
1111111101111100
100011
1111111001101010
1111111000010001
10001000110
1100001101
1111111010110111
1111110111001110
1111101011100010
11011110
1111101111011100
1111110111011101
1000011111
1011111
1001000
101011000
1111110011101001
11110001
1111100001000011
1111011010111111
1111111101110110
11010010110
1111101011
1111101111000110
1111111101001101
1111111100101101
1111110110100111
1111111101011011
101111000
1111111100000000
11101101
1100111110
11101110111
1111111110010011
1111110101000010
1111110111011110
1111100110010110
1111101011011101
1111100100001101
110110
1111111011110101
10001101
11100110000
1111110111111110
101001100
11101010011
1111011111001111
1111111111011001
1111111100101111
1111100110100110
1111011110011001
1111110010110011
1001111001
1111111011110010
10111010
1101001011
1111111111100101
10011100011
100011000100
10011000001
1111111111010111
1111110001111011
1111110010111001
1111111111011100
1111110010101100
1111111011111001
1111110110101110
11101110010
1010111
1111110001110101
11101110000
10110001111
101001111101
10100100
1111101000001100
10001011001
1111100001000010
1111100000111110
1111101111101111
1111111010100111
1011010101
1111110111011111
1111110101001110
1111110111010110
1000100101
1011
1010011110
110110011
100110101
1011000101
1111101001100111
1111110100000101
1111101110101010
1111101110111011
1111111001110111
1111110100100100
1111101010001110
1111111101010000
10100011
11100010
1111011111011001
1111111110010011
101111001
111100
1111101011111010
101100001010
1111111010100011
1010000001
10010111111
1111111110001110
1111101100000000
1111111110001011
110111001
101001011
1111111000001000
10101110001
10001111000
100000101
1101000010
1111110011111011
1111111000011110
1111111101110101
1111111101111110
1001010010
1111111111011000
111100011011
1111111001101001
1111110010100011
1111101100101001
1111101111110111
101001000010
1111100110101100
11001000101
10110101101
1111101011001011
110101001
1111111101001100
1111110110001100
1111101100000011
1111111010000100
1111111111010100
1111111000100110
1111111111011011
1101000101
11000011
1111110111011001
1111100110111001
1111111101011110
1110110010
1111100111
10011000
1111100010111011
1111110111110101
101010001010
1111110110
1111110100100110
1111101000101110
1111110101001100
11010101101
1111110010111101
110001001
1010110000
10000110111
1111111010001110
1111110001000000
1111110001101100
1111111110101111
1111111010110100
1111000101
11101000100
11111111001
10000011010
1111101100000111
1111101110101101
1111101011110111
111010001
10010100101
10000111001
10011101111
1111110100101111
1111110011111001
1101001111
1111111011110001
1111100110001001
1111011111101110
1010101001
101100011010
1111011111110000
1111110010101111
1111110101010001
11000100101
1000110100
1111110111000010
1100101100
100000010001
1111111100101101
1111111100
100101010001
11101100101
1111111001110011
1111110001000011
1111101000001011
1111101101001111
1110100111
11110011111
1111111100111111
1111111110000001
1101001
100000011111
110010011
1111111000100001
100101110100
11100110100
10101100100
11100000001
1111100100011011
1111010011010010
1111100111010100
1101011001
100011101110
1111110000100001
11110010
1010100
1111110111111011
11111110101
101000111101
100011101000
10100100000
1111111110100010
1111110011100010
1111110110000111
100010010
1111111010100001
1111110001101101
110111011
1110010101
101010011
1001110001
110000101110
111110101110
11011010110
11100110
10011000011
1101110101
1111100011110111
1111111101001100
1111110010100011
1111111110100100
1111110010111110
1111100000111001
1111100010011100
1111100100111011
1111100001010101
1011000001
101110001111
11101011011
1111111001111010
1111111100100010
1111101111001011
1111111001010110
1111101110111000
1111011110000001
1111101100000001
101000
11001
110011110
110110000110
10011111000
1111111001100000
1111100011011001
1111111000110001
10011100
1111111110111011
10101000
1111101001011000
1111100100000110
1111100101010100
1111000100010010
1111001101010110
1111010100100000
1111011010010000
1111100011011000
1111111110
10010010
1111111011111111
1111111000110101
1111110100101100
1111101111000011
1111100100010100
1111100101100010
1111100111101010
1111111100001000
101001100
11110101
111111110110
101100000000
100110110111
1111111011001101
1111111000111101
1111101001011110
1111111110000000
11000010010
1111110111011111
1111100001111000
1111010100110011
1111100101010011
1111101010100010
1111001101100000
1111010110011101
1111100001101001
1111110110110101
1111101100010011
1111011111100111
1111111111100110
1111111001010011
1111110010001011
1111111100110001
1100100
101110100
1111110001111010
11001000
1101011011
1111110111111010
100101110
100101000111
1111110000111010
10010000101
1111010111101101
100101111000
10101101011
1001101
1111110010101011
1100110
101000011001
11001001110
1100011
101111100
11010111000
1000000111
1111101010111111
1111110110010001
1111110000110101
11100001
1101110110
1000000001
10011010
110111111
11100001111
11011101
111000010100
1001000000
1111101100111010
1111100111010011
1111111100010100
1111011110110100
1111011000111101
100000110010
10010110001
11001101011
1100100100
1010011110110
1101111001001
1101001100110
1101001001010
1001110000011
111111110000
101000000110
111011101
100001011
1111111010000101
1000111001
11010011000
110011000
10110011111
10111111101
110111111110
110011000011
11100100100
1111110000001010
100110110001
1111110111000101
1111111111111010
10111010010
1111100110000100
1111111100011111
110001111110
101111111011
1000100101100
10010100101110
10000000011100
10000111011010
10010110110000
1111111001000
1011010100010
101010001001
1111100111
1001100010
1111101100010100
110111001
10010001100
1111111111011110
1011101101
10000011010
110001101
10001001110
1011000001
1111101010001011
101100000111
1111100010000100
1111111011000011
111000001
1111101010101110
1111110001110001
1011110100
10001
100110011110
100100100011
101111011101
110111000111
110111101001
110101111110
100011111001
11110000111
11010001101
1011001001
1111110010101000
1111110100
1111111100101110
1111111101000000
1111111010011010
1111101000100111
110001010
11111111001
1111101110110100
1111010110010000
1011010110
1111111010100011
10101111
10111000
1110000
1111110001001110
1000101000
1111111010100111
1111101001101111
1111111000100000
1111110010011100
1111111001000001
1111100010110100
1111110101000101
1111111100111110
1110011110
1001101000
1010101100
1110111
1101110
1111100
1111100101
1111111100101110
10110111111
1111110000011101
1010111010
1111101010101110
1111010101101100
1111101011011111
100101011
1111111110000000
10111011
1000100000101
101101111001
1111111010000010
1111111111011111
1111100111100010
1111100110101100
1111110111011110
1111100110001001
1111011111101001
1111111001101111
1111101001100011
1111110011101001
1111111110110111
11110001
1101101111
10000010110
11110100011
11001010100
100000000110
1100001011
1111110100111011
1
100000110
1111011111111000
1111101010011001
1111111111011010
1111111110010010
100110101
10010000
11110000001
1100011001
1111110100010000
1111111110100100
1111101001000110
1111110011110001
1111101000111111
1111101000101001
10001001
10101111
1111111000010000
1110110111
1001010001
11110001000
1111111100101010
10110000011
100000110010
101001011101
1000110000
10101100011
1111010111011100
1111101001110001
101100101011
101101010000
1100110
11100101
1011011
10101000110
1111111011111110
1111111100110101
1111100111101001
1100100
1111111001110111
1111111000011011
1111111001011101
1001001101
1111111100100111
1111110010010011
1111110110110010
1111110111100010
1000000101
11111000
101111100
10001010011
100001011011
100100101011
11010001010
1000110011
10000110
1111100101001100
10000111011
11011110101
100100101
1111111111100011
10010000
10100100
1111101001111111
10010011100
1111011010010100
1111010110110100
1111011101011011
1111011010111010
1111000010100110
1111100001110101
1111001110100001
1111010101110110
1110111111000101
1110110000100100
1110101001110111
1111010101010110
1111110110100001
1111111111010110
1111111111010011
1111101000111010
1111100101010101
1111110111000011
1111101100101100
1000010001
1111110101010011
10000010
101010001
1111111100111100
1111111011111100
1111111101111101
1111111101010010
10111010100
11001011
1111111111110001
1111110100100011
1111101011110011
1111101101100111
1111010010000111
1000000100
10111100001
1111111001010010
1111111010101110
11010110011
1111111101101101
1111110100100011
1111100110001010
1111101001001011
1111110111100100
1111101
100101101
1111101101000000
1111111101100111
101011001
101011011
11011011
