1111111011011100
1111111111001101
1111111010101001
101010101
101001111
11001011
1111111111100111
10101111
1111111011111101
1111111100011111
1111111110100010
100010010
10100111010
11000110111
111100
1111111110001010
100100101
1111111010100111
1111111100000110
101010001
1111111101011010
100111000
11101000
10010101
10110111
1111111101000100
101110
1111111111110110
11111110
1010010
1110111
1111111011111100
10000011001
11110000101
110001010000
1000101010110
101110110010
1101011000010
10000110001111
1010000100000
1010100110111
100000010010
1100110110
100000001011
1010001101
101001111001
111110001001
110010110101
110010101000
1000111101100
110001010000
11101111100
11100100
10000000
1111111111010011
110010
11101110
1111111011011101
111001101
1010000001
11000011000
100100101011
101001111010
111100000110
1011111100100
1111011111010
10000011000101
11000110011010
10100011110111
1000011001010
100111001110
101111100011
111000110011
101110011001
1010100100011
10011101110000
1101111110101
1011000011110
1000000010010
10011111011
1111110110010110
111101110
1111111011100010
11010101
11111001
11101101
1111111110011111
100100100001
1110111001
111110111110
1000000111100
111110011101
110100011000
1101001110101
1011011101010
1001101101110
1100100110001
1110011000100
1010011010111
1001111010110
1000001001011
10011111101
100110111
1010110100
1111111011001011
10001101
1111101111001000
1111110010101100
1111011110101011
1111011100101011
1111110111110010
1101100
101001101
10100100
10110011110
10000000010
11010000001
101001010010
101000011010
1001010100100
1110011011101
1111101111101
1100101110111
100011101101
101001010110
101110100111
1001001001101
1000110010100
110001000101
110110100111
101000110010
1111010110
1111110010111100
1111000101101101
1111000101011011
1111011100000110
1111001011111011
1111101011111111
100111000000
101111000111
100001100
1111111111001101
101100110111
10000110100
10111110110
11100011
11101011101
1111111110
11010000111
1011000101
101000101101
111101101010
110010010010
100011000100
11010001011
11010011000
101010101111
1000110101
1010111110
1111111001011100
11110000011
10110001001
10100100111
10000110001
1111111101011010
1111101011101001
110011111011
100101101001
1111111110000100
100101100
1111111010100000
1111011010111001
1111100101100000
1111101111010001
11010
1111111011001001
110000000
101010110
11010111
11000000100
1010110111
11101010
101000101
1000110011
1111111100000000
1111100011110011
100000000
1111101111
101101100001
1111000001
1101011100
10110000110
101000000110
101011111001
1111011110
10011011
101001100
1111011001000111
1111100101000011
1111011111011011
1100111100
10111111111
1111100100011010
1111100110001100
1111110111011000
1111110001011100
11100001
111100111
1111110011110111
1111101100001011
1111110101111110
1000100110
1111110101100110
1111110110101011
1011111101
10011000110
10001000010
1111001100
110110101
1111110000010000
1000110110
101000011000
1111101010100010
11100101
11111000011
1111111001100100
10010001
10010001
1101100111
1000111111
1111111110000000
100010101
1111111011100100
100011010
1010001
1111101000011011
1111111001010010
11010110
1111110111100011
1111111001001111
1111110111100010
1111111001111010
1001110001
101100111
1111111101110000
1111110001011001
1111110111010111
11010110
11010001
1101000100
1111110100100100
11100110011
1111101011001101
1111100000010000
101010010101
1000000100
1111101111110110
1111111000000011
1111111110000001
1111111000111000
1111101101000010
1111110110111110
1111110010011001
1111101000100001
1111101000111001
1111111001001110
1111111101101101
1111111101000011
1111111110101110
1111101011011010
1111101111111010
1111110001110011
1111111010001010
1110000001
1111010111111101
10000010111
11100110001
11111101100
1111111110110011
1111100001111000
1111101101000010
1111110011001011
1111110110100001
1111110111111110
1000111111
1111010000111001
1111010111111001
1111101111111101
1111111011101010
1111110101011110
1111110111110011
1111100111001001
1111111010011000
10110
10000011110
110000001
1111110100001010
1111110100011000
1111100011100001
1111110010010000
100110001
111111100
1111111101011010
10011101001
101011110111
1111111011110001
11000101011
100011101
1111101110100101
10111110000
1111011101010011
1111110101101111
1111101111000110
1111010000101101
1111100111100111
1111110100010101
10001110011
1111111001000000
1111111101001101
1111110110101110
110100001
11010010100
1110001111
1111100101101000
1111011111111011
1111011110011111
1111110010001011
1111110000011000
1111011101010001
1111110010100010
1111011111110010
1111101100111101
11010001001
1010111101
111111000000
10011111
1111111000110100
1111111100111110
1111011010101010
10101001011
1111100011111000
1111011011111010
1111100101001101
1111111100001110
1100101000
1111001001
1100110110
11011110111
110000000110
110001101000
1111111111111000
1111001101010101
1111001010100100
1111110010100110
1111110011110101
1111101111110011
1111110100110101
1111111011101000
1111110011101000
1111101000011111
1111111000010111
1111110101110101
1111111000011101
1111101111011010
1101010111
11110100011
1111010011010010
1100011111
1111110010101011
1111111001101001
10000010
1000110011
1101110010
10110110010
111101111
11000000001
101111011010
11101011010
1100101101
1111101000101111
1111011110010100
1111100110111100
1111101110101010
100101100
1111110010100110
1111110111011111
11110010
1111111110101110
1111100100100011
1110100101
11001000011
10110011110
10100010100
11000001000
1111100101101011
1111110100000000
1111101110110010
1111111010111011
11101110001
10010000001
11110100111
1111111111100111
1001110111
101100110011
101011111101
100101011010
100001011011
1111101111011100
1111110010110111
1111110110111110
1111101000000000
1111111000000000
1111101010111001
1111110101000111
1111111111101000
1010101
1111101101100101
1111111110100010
1000001011
1111111101011110
1111101011011110
1110000100
101001011011
1111111010101010
1111101011111100
1111101010000011
1111111101110001
1101010110
1000101011
10011000111
100010011010
100100001000
100100110101
101001110111
11010110011
1111110000110100
1010001100
1111101010001010
1111101010110001
1111111011101100
1111100110111001
1111110010111001
10001011
1110100100
11011100100
110100000101
1111111111000110
1111111011010001
1111100001000010
11011011111
101011111001
1110100000
100110101
1111111010101011
1111101001011010
1111011001110011
1111011000010100
1111110010011100
1010111011
10000111111
10010101101
10110110001
1001001101
1000111010
1010101
10001101
1111111001100001
1111110001110011
1111101000010000
1111101100000011
1111111111101010
1111111111110000
11110111000
1100000011100
100001000010
1111110001101100
10100111
1111101011
1111001
111011
10010011000
10010000101
1111101101011100
1111010110100000
1111000100100101
1111010001101000
1111000111001101
1111010100010011
1111011100111100
1111101001001110
1111101010001000
1111011011011110
1111111001001011
1111111110111000
1111110011101111
111000011
1110000011
1001100010
10110111000
1111111011011101
11111010100
1111110111001101
1111111101000011
1111111001100001
1111100111000010
100000000
1111100011001011
10111110001
10010011101
11110100
101100111
1111110010101000
1111111000000111
1111101100110111
1111000110110110
1111010100011110
1111011010001010
1111101001101000
1111011101001011
1111101010011011
1111101100110000
1111101100001010
1100001
11101010
1010100111
1111101010101000
1111111100111111
1111111111000000
1001010000111
111001100
10000101
1111101001001100
1011001101
1111011101111100
1111100011000010
10010100111
1111100001000001
1111111110010111
1111111100000000
11010100
1111101101011001
1111101110110001
1111110111010101
1111100001000110
1111101100111001
11101010
1111101111110000
10001100011
100000001
10010101000
10001010110
1111110010101100
1111110011011101
1111100000101100
1111111100010111
111011001001
11010001010
1111110000001010
1111111000110111
101010111
1111111011001010
1101101101
1111101101000110
10001011111
1111111110110010
11110010100
1111000000
100100101000
101000010110
100001001001
101001111101
100011001010
101010001000
1011011000
100000001
100100101010
1111111101010011
1111110111001010
1001100010
1111101110110011
1101001101
1010010
11111011110
11010010010
1011101011
11010001110
11111010010
1111111110011010
101100110
11100110100
10011101101
11011101101
10010011000
10100001100
110001010100
110111100111
1001100011010
111011001100
110011001101
111100001101
101110101101
110010111001
111000111010
100000111011
1111100010011100
111010000
1111110111010000
1001011010
1100010110
1111111001011111
100000110010
110110111001
1111111111111000
10110010101
100111011110
111
100110001
100010110
100100110110
100101011
1001000111
1010001001
111010010
11011000100
11000100001
101111100011
11001101100
110011101100
11001110111
110100001000
10010011111
10101011101
1111101010111011
1111111100101011
100010111
11010100110
1111111010011110
1111111011100100
111100101
1000111001100
1011011010
1010001111
10011101111
100101011
1111111011011011
1111111011010011
110001001000
11101000000
11111000
1111111110001111
1111110011010111
1111101101010110
11000111001
11011011000
10010001110
11100011111
101110001110
100001111101
100000001010
110011001111
101010001110
10011001011
10110110010
100001010111
1010101101
1111110101110101
101001000101
101000110001
1111110111001001
10110110000
10101111111
100011100
1111111011000010
0
101111010
10001011001
1111110000011011
1111110000011110
1111111000011100
1001011110
1011110010
10001111
110010100
1111100101
101001000011
100101100010
101101001000
111000001111
111111100111
100000101
110100011000
101000001000
1010101
1001001
10100100001
1111101011011110
1111111110001110
11011001101
100100011100
1111111011110010
1111111111010101
1111111111100111
1011011000
1111110101011000
1111110000001001
1111110100010111
11001000001
1110111001
1110001001
1111111110110110
11111
1111101111000001
1111101111101111
1111100
1111111100011100
10101000011
11111000111
1000000000101
110110001111
11010010101
1101011000
1111110101001110
1111111111001111
101110111001
10001110101
1111111111001011
11010110000
1111111111101001
101011101
1111111101110000
1111111101101000
1111011100101101
11111010000
1111110010001011
1111011101101001
1111110100000110
1111100001000110
1110111100001100
1111010111111011
10011010
1111111011111010
1111100101001000
1111010010001000
1111101010011000
1111111010000001
11010100000
10011111011
100110011
10011010010
10110101110
1001100101
1111001101001111
11001101
1111111000010000
1111111111100011
1001001
1111111111000110
1111111110101000
10111011
111001
1111111111010110
1111100011100101
1111111111110001
1111101000010011
1111101001111001
1111101011001101
1111011011000101
1110001
10011001010
1111010101111100
1110111110110001
1111111001000111
1111010101101111
1110110110100110
1111011101010101
1111011111001111
1111011010101000
1111010111011110
1111100000001000
1111101111100011
1111111100101110
1111001
1111111111010010
1111111011100011
