10001010010
1111110100111101
1111101001110110
100011001011
1111000110110000
101000101
1111101111100111
1111111100001101
1111110111110001
1111011111111111
101010000001
100011110001
1111000111011110
10100101101
1110010100011100
1101110111001011
1000101011110
1110001011011010
11000100011
1111110010001111
1110110011001011
1111011110011100
1110110101010110
1111101010001110
1111000110001101
1001111101
1000010010110
1110101011101
11100001111
100100000010
