1111111111010100
1110111101101001
1000101101
111011001
1111101010101011
1111110110101101
100001001000
110111001000
1110110010111000
11100001011
1111011101010111
1111101110011010
10010001101001
1111111010111000
1010101001
1101010001111
10001100011
100001011101
1111101110101000
1101001101
1110110011110010
10010010110
10010101101001
1111010111110110
1111000000010101
111011010111
11111101101
1111101010101010
1111110001000001
1111011010001011
