1111101000100011
11111001
10101100100
10001111111
100100000110
1110110000010010
1111000011100010
1111011011001110
1110101011110111
111110000011
1000100001000
111111010010
11011100
1111111011001110
111100111
1111001000110100
11100001100
1111110101100010
101101111110
10111
1111000101111001
1001011011
1110010100111011
11101110010
1111000111010100
11001110100
1111110111100110
10100110100110
1111000000001001
1111101010110111
