1111000100101010
100111100
1111111111011101
1111010000011111
101001101
110001111101
1111111101100001
1111111101100011
100001011100
1111111011111110
1111100010101010
1111000111110110
1111011000100010
1111011010011111
10011001010
1110101000010010
1001011001110
1111101001000110
1111001011101001
1111101001101111
111011101010
1110011110001010
1111010001101010
1111010010011111
1111011010
1111011010000000
1111110101011100
1110010101000101
1011001110001
1110110000111
