101001001
111100011100
1111101110101011
1111001011011001
1111100110100111
1111011100010110
1111010000100101
1101101001101
11100001111
1110011110101010
1101110111
10111000010101
10111000000
1111111011100010
10000101110001
1001110001
10110110011
1110001100011111
11101110
1111101010001000
1101110011111010
1110000010101100
1111110011101101
11000101
100110001111
1000110110110
101010010110
1100101110101
1110110000000001
101000111
