1010011
11011001
1111111101110100
1111111110010110
1111111100000100
1101011
11100
10100111
1010110
1010100
1111111100101111
100111111
1111101100001110
1111100111010001
1111111001100010
1111111111111010
1111111111000011
1111111101110110
11001010
1111111111101101
10111110
1111111101101111
10010
10000
1111111100100010
1111111110100100
1111111101001000
1111111010101110
101000101
10101000
1111111101111100
1000111
1111111000100101
1111101111110100
1111011010000100
1111001010111010
1111011000010011
1111000100010001
1110011111100111
1111101101001101
1111110010000001
1000010110
1111111110000111
1111101100111101
1111111001101100
1111100111100100
1110111001010010
1110111001001100
1110110100101101
1110100000101011
1111010000110010
1111101111000100
1101011
10110111
1111111111001000
100000011
10111001
101000100
1111101100101101
11000100010
100101110
1111000110111011
1111001100101010
1110101101000100
1111000001010101
1111011100010100
1111100101110011
1111001010100001
1111000011001000
1110110110000111
1110111000010011
1110100001100000
1110011111010000
1110100101100111
1110011100110001
1110011101010011
1110101111111010
1101011110110100
1101111110111111
1110110101000011
1111011110111001
101010111
10010101
101000010
1011001
1111111010111101
1111111010110110
110111011
10000100100
1111110011000101
1111011111001110
111110010
110101001
1111101100001000
1001010110
1111111001101010
1111111000101100
1111011010001100
11101110
1111111100010001
1000110
11010011001
1000110011
1111111111110110
1111110000010100
1111110001010100
1111000111000101
1111001100010100
1000011010
11010010
10111000011
1111111110011101
1111111101000110
1111111011101101
1111101010110011
100111110
1111111101110100
1100001100
11011101101
11000010111
11000011110
1111111111000010
1111111111000111
1110111011
1111111100110010
1111101111000110
1111001111001110
1111100110001110
1111011000000100
1111011101000000
1111111001110011
1111111100000111
1111100101001100
11101011
1111110101010001
1111100100101100
1111110111110100
1111111111110111
11001010111
1111011000000110
1000110
11011110
1111001100001000
111100001
1111101111000001
111010011110
1101001000
100100000101
100101000100
1001111110
1111111110110100
11110011
1111111110011010
10001010010
11000111
11100111
1111100110111111
1111101111001100
1111110010000001
1111110100100011
1111011101101000
1111010110111011
1111101001110011
1111100100110000
1111110001111100
1111111001011001
1111111000110011
1111101011111001
1111111110000101
1111111111110011
1111111001001100
100000110010
1111
111001001000
1001101010
1111110011010000
1111111100000010
1111110100110000
10000011010
1001011110
101000101
1110110001
10111001100
10111000111
10110010111
100010000110
11100111100
1101011100
1111110001011001
111001
1111111
1001001
1111111011000000
1111110100111101
1111110001011011
101111010
100011111
100110100110
11110001100
100000110010
1111111000110011
10010000111
10001001100
1110001
1111111101111100
1101000100
1111110000
1000001000
11011000101
10110100011
10000000000
1100101011
101001100100
100101110111
101000100101
10101110101
1111100011
1111111000111111
1111110000110111
1110100011
1111111001101111
1111111000010101
1111101101011001
100000011
11100010000
101010111
1000111011
10111101110
1110111110
1110110101
1111111110011001
1111111111101101
1100011110
1100100010
101010101
1011011000
10000001111
1111111111011000
100011000011
11010100110
100011100010
100111001110
100111101100
11000001110
1110100000
1111111011110011
1111111000000010
1100110101
1111110011110010
1111100011111110
1111010000101000
1000011101
10011011101
101110011111
1111100101100000
1110101101
100101010000
10011000
1111110111001100
1111111001111110
1111111000000110
1111111011000011
1111111100000001
1111111111011001
1111111100010001
100101000100
100110100110
1110101000
10100100011
100001010101
1110101001
1111111000011110
1111101111001111
1111110101000101
1110000110
1111101101110010
110110011
1111100010111000
1111001001100010
1111110111100011
10110110000
100111101110
11001110000
1001101000
1111101101110001
1111100001
10101100
1001001011
1111101101101010
1111111110101100
1111110000110100
11
1111110101110110
11100110010
100000110001
111010100
11001010110
1011101111
10111110
1111111110110100
1111110111011111
1001010011
1111110000010010
1111010111011111
1111101100110010
1111100110110011
1111011110101011
1111011010000111
10010110111
11010010110
11011001100
1011001111
1001100
1111111111100001
10100000100
100001100
1111110000010011
1111101100101100
1111101001011110
1111110101111100
1111101100010101
11010101
1111111110111001
111101110
100100111
10010011110
101100001
1111111000110010
1110011
101001101
1111111111010101
1111110010011111
1111111010110010
1111111010000101
1001000001
1111110111001100
1110111001
10001011011
101011101
10001010011
10000010011
1111010
1111101110010101
1111110011010011
1111111101011110
1111110111011010
1111110011010101
1111110110101010
1111110111111101
1111110010110010
1111100011101010
1111110110000101
1111111010110010
111000100
10101111111
1101001110
1111111111111100
1111101111101000
1111111010100101
1111100101010010
1111100101001011
1111111100001100
10001011101
1100011101
1111101111001011
1111110100001111
100101011110
111110110001
111011011101
1111010
1111110101111111
1111111010110001
1111111001000101
1111111101001011
1000111100
1111111000011111
1111110101011101
1111101110101111
1111100111110010
1111011010101010
1111101010010101
1111111101101100
111111010
1011100
1000100010
11010111010
10000010001
10011010011
10110011000
100110010101
1111111000011000
1111100111010100
1111110011011001
1111110110111100
100101110010
101000000010
11111000011
1111110100011111
10101000
10010101001
110100101
100101110101
100101110110
1100
1111101110100010
1111011001000101
1111010110100111
1111100100001111
1111100110001001
10101000
1111001000
11011001110
100001110011
101001000001
1111111111000100
10111000110
10111111110
1111100101000000
1111110001000110
1111100010011100
1001111110
1010010100
1111001011001100
1111110101100000
1111110111011100
1111111011010000
10011010110
1101000110
1010000011
10000000100
11100011110
111101100
1111101010011011
1111011010000110
1111001011010001
1111101100110011
1111111000110001
100101110001
100000100011
11000001110
100111100110
10011110100
11001010
100011101110
1110011010
101110101
110110
1111101101111011
1111111111
1111110011001001
1111011110001100
1111110001111001
10111111000
10011011000
1100000011
1111111000010110
1111111011010100
0
101101
1101000
1111101001010100
1111011101011000
1111011010001101
1111011100001111
1111111101010010
11011001101
10111011001
100111111100
100101111111
10100011110
1010100001
10100011111
1111101100011110
1111000110111111
1111000111000100
1111110111110101
1111111100001010
101100000
1101000001
1111111101000111
101011011001
1011101010
1011101110
111101011
1011111
1011001011
10100011
1101011
1111101111100110
1111010100110000
1111010001011010
1111110010111011
10000011
11011100000
10000010110
110010110
1111111110110000
11111
11010011001
1001101010
1111100110101000
11100010
111100111
1010011011
100010001110
1000111
101001000010
1111100110110010
11000000111
1111111111100011
1111110011111001
100100101
1111111001001100
1111111111011100
1111100001
111110100
1111011110110010
1111000010111111
1111011011000010
1111101100010100
10011000110
11001001100
1101001100
100100010
1111110111011100
1111111001010101
101001101
10110001011
1111001101000011
1111101010010001
11110110
1111011111010000
1111111001000010
101001001100
100011010011
1111110011011101
10000010010
1110001110
100001111001
10100011101
110110011
1111111011010100
1111110111111111
1111110010100101
1111101000011100
1111000110110101
1111100000001000
1111110011010001
101101101
1010111101
11001011
1010110110
1111110110011000
1111110010010110
1111110001010011
1111100001101110
11110
1111111000111010
1111001110010010
1111101101100010
100101010
11011010100
101001010110
1111110111000001
100101010100
100111001101
11001
10011110010
1111111101110101
1111111001111010
1111110110000011
1111101111101111
1111100011001010
1111111000110100
1111110001010010
1111110100000001
11110101
11111000
111000001
1111111001100110
1111110010000011
1111101110000111
1111011010001001
1111100010111010
100000010
1101011
1111010100011010
1001010110
1111110011101010
1111111001110000
100110101000
11100011
100101110
10000100101
1111111100010100
1000001100
1111111100011001
1111101111110110
1111111101010110
1111111111101101
1111111100101100
1111110000001000
1111110001101011
1111100101101000
1111111110010001
1111101011000101
1111110001000010
1111101111000011
1111111011001000
1111010101111101
1111010101001111
1111011110100100
1000110110
1111101101100110
100101110001
10100000001
1111110111101100
1111110111001010
10100100011
100001011
1111100011110011
1111100010111100
110101001
1111111101100010
1111110001100001
1111111011101010
1110101001
1110001111
100100000
1111110110110000
1111110101111010
1111110001011011
1111111101101111
1111110010100101
1111100101110101
1111011001110111
1111011001001110
1111010100001001
1111111001001001
1111111011111010
1111111110010001
1111111111000010
10000100100
1110101111
10110111
1111111100010000
11010110000
1111101010100001
110100110
10001000100
11111011000
100100000000
11011110
11000111001
11010000100
10111100101
100110011
1111110000100110
1111111000010111
1111111000001111
1111110110001000
1111111110001110
1111111001100001
1111101000000000
1111011001100101
1111100000000001
1111111000110100
1111011100
100111101011
111111001
1111111110101010
1000
1111111111100111
1000000
1101101001
10111101010
110011000111
111010110011
1001000000100
111101000100
10111000010
11110000100
10000001111
1111111100110011
110100011
1111110101000011
1111111010100111
1111111011110110
1111110001110011
100110100011
1111111001
1111110010010001
1111111111111111
1111110000000100
1111010101110000
1001101
1111101011
1111001101000011
1111010111000111
101011011
10111111
1111111011001000
10010001
110100100010
111011111010
1000111010111
100101100110
111100000010
101011000011
100001010001
10010101110
10110001100
1111110011101111
1111010000011100
1111100010000001
1111101010011010
1100011
1111111101101100
1111111001110110
10110011
1111110010001101
1111011
1110011
1111101110111000
100000100000
1111111101100000
1111100000011110
1111111011001110
1111111110010000
11000000
111110
1111111001
1111010100111100
100100101000
101101100010
10111110101
10011100101
100100001011
1111111101
111111001
101001000
11111001100
111000001100
1001010000001
100100000011
100010
100010001111
101001011111
111000011010
101111110101
110111011011
100110110101
1111100011000000
101000111
100010100
10001111
1010101
100011111
11100011
100000100
1011101011
10100001110
1111110101000111
1011010101
11111011101
11111011100
111101001010
11100010000
1001110001
1001100001111
1010010011100
1000110010
11101000001
111001101001
110110100000
111010001110
100110011111
11011001100
11000111000
101101000
1111111110001001
10000100
100001000
1111111011100110
