1111111010110100
1111111011101100
1111111100110011
11111001
101010011
1111111110101101
1111111100101111
1111111101001110
1111111111100001
1111111011011101
1111111110111111
11101100
1111110011110001
1111111000010010
1111111110100011
100101111
11011000
1111111010110011
1111111110001101
1111111101001000
1111111011101001
1111000
100101
1111111011111110
1111111100010011
10101000
1111111111100110
100110111
1111111100100110
100100011
100010101
1111111111110011
1111110111001111
1111110111110100
100010101
1111110101101111
1111101100001010
1111011000011010
1111001101011001
10101000111
10101110000
1111110100000100
1111111100000000
1111011110
1111110111010100
1110111100100000
1111000100011011
1111001000100001
1111010010001110
1111000011010001
1111011110001101
1111111010001000
10011101
11111110
1111111100110101
1111101
110100
1111111101001111
1111101110000000
10010101001
11000001011
1111110110101101
1111001000111101
1111010111100111
1110011111100111
1110100111100111
1110110010001111
1110111111101101
1111000000111010
1111010100001011
1111010011011100
1111011000011111
1111100101110100
1111000100000100
111
10111101
1100111110
1110110111111100
1111110110100100
10110010101
1111110111110000
1111111111
1111111111010110
1111111010100010
1111111101010001
10011
1000111011
11110011000
11100101101
1111101001010001
1111111101000110
100000101100
1111101101
10110000001
100101111100
100111101100
111011110010
111010110011
110010100100
110100001011
10001111111
10000100111
11001010011
11001011100
10111100110
111010100
1111100101110000
1111101111001000
1111001110
11011100110
10000111111
1111111111010010
11111100
1111101000011011
1111111101110010
11101010000
10110100110
10101011010
10001110001
100000101001
10101101000
11001010010
100000101001
100100111111
1010000100
10100011100
1001001101
1111110111
1111111010000100
1111110100100101
11010101001
10010001101
1001011
1001010010
1111111100100011
1111101100101001
1001111110
1111110110101010
1010110110
1111100101110101
100000010
10100
1111011111011010
1111101101000001
10101001
10010010101
100011010
1111111111001011
101110101
1101111100
1111111010111011
110110001
1111101011100101
1111111001000001
1111011111111110
1111100011101000
1111111101101010
111011110
10001110000
1011001101
11110011010
1000001111
1110010110
1110110001
1111111101101000
1111101100100001
11000101000
1111101110001100
1111111111100110
1111110101001111
1110000110
101011001
100010110101
1000001001
1111111111101000
1111111000110001
1101100
1111111110000000
1111110001110100
1111111100111011
1111011111010001
1111101011001100
1111101100011100
1111100100100100
1111011110110101
1111101001011011
1111101011110001
10111110
101000110
11100010000
11111000101
10000101110
10010110010
1111111011011001
100000001111
100000001000
1111111101010001
100100011
101101101
11101001000
101001111
101011111
1111110101111111
11001110
11001100
1001101
11000101
1111111001000001
1111101001111111
1111011110100001
1111101001000011
1111100100010011
1111101110000100
1111011111000111
1111110101111110
1111110111010010
1111111000110111
11010000010
10100100001
1000111011
1111101101001001
11010000001
10011110011
100101101010
11110011001
11000101110
10000101110
1011000000
1111101111100101
101010011
1111110010101111
1111111000100101
1111101101111001
1111101111100111
1111110010010001
1111101101101010
1111110000010100
1111011000101011
1111101000011001
1111100101010101
1111110001010000
1111110101000011
1001001000
1010011001
100100110
11100011
1111111101101000
111100101
1100100011
10000000001
1111110011000010
1110101011
11011100101
101101110111
1111011101111111
1110000101
10001001111
1111100101111010
1111110011011001
1111110101100001
1111100111100011
1111101000010010
1111101110010100
1001010111
1111110111011100
1111101001101001
1111100001000100
1111011001100010
1111101001110100
100111
11101110101
10100110011
1010111011
10100001001
10011111100
10001100100
110101001100
110110001111
1111110100011011
1111110100100110
11000011011
101110110011
101000111101
100100010111
1111110001001110
1111111110010111
1111110111000000
1111110101101000
1111111100011100
1111110101011000
1111111000010010
11101111
11010
100010000
1111101111101110
1111011001111100
1111011111111011
1111110011111010
1111111101010010
1101010
1110000101
100010011000
100011010010
11001001000
100110110000
101110100111
10110011111
1111101101010111
100000111101
100011000111
11000111001
101111001
1110100110
1111111110110100
1111110101011101
1111111111000010
1111110000001110
1111101100111101
1111111110101100
1000100011
10011001
10110001110
1111101110010100
1111010100010111
1111010110111000
1111110111101001
1111111000001101
100000011
1111110001010100
1111101010000001
1111111010100100
110111001
100010110101
110010001
11110100001
11001111010
11110101110
10000100100
1010
1010000
100011011011
100100110
1111111101010010
1000100100
1001010111
11011110010
10101001011
11010111010
100000100001
10000111000
100110100
1111011011011010
1111011000101000
1111011101111110
100100
111100000
1111111110101101
1111110001101010
1111110101111001
101100101
1111101101100101
1111110111100110
1000001101100
100001100
1111111011010110
1111111010011000
11100100111
11001111001
100010110110
11000110110
1111110011010111
1111110101110000
1111111010000100
10111001100
11010110010
10000000000
1001111101
1111101001
1111111101111110
1111010100000100
1111001101000011
1111010011000010
1111100010010100
101110111
1111110110
10000110101
1111110101111001
1111110101001010
1111100100110010
1111010110100110
10101001100
1111010010100101
10110100101
1111100111101110
110011101010
1100010010
1100110000
111000110
1111111000110111
1111111010100100
1110101111
10110110
1101010000
1111111000001011
100101001
1111110110001111
1111101001110011
1111100010101011
1111010111001101
1111011110011001
1111100011000110
1111110100110001
1111111101000010
100011110
101011001
110010100010
1111010111
1000010001
1111100010010000
1111011111100110
1111101101
1111110101101010
1111111101110110
1111101000100011
11001110011
101101111010
11010000110
1111111010111001
11000001011
110110000
1011001111
1111111110100100
110111011
1111101010001100
1111010100101100
1111011111011000
1111010101111010
1111100100010001
1111111101110001
1111111100
1110100011
100000011
1111110100110100
10110001110
10000100111
110011100110
1111101010110011
1111101100110111
111010000
1111100100101011
1111110011001011
1111110011110100
1111110110100010
100011000000
10101000010
1111111011011100
1111110111100111
1111111000111101
11011000
1111111110001101
1111111010100101
1111101001011100
1111010101011001
1111010000010101
1111001001110000
1111101111000100
1111010001
11111111011
10101111011
10010111001
11111111
10001011111
1010010111
1111101101001100
1110111010101101
111010
1111111111000001
1111110010001100
1111110100010110
1000100001
1111110011111001
110011110110
1101000111
1111100011101110
1111001111100000
1111010001010011
1111010010110101
1111011011011111
1111011000101110
1111001010101001
1111001001101111
1111010110101000
1111100001110010
111100001
11101001011
11010110001
10100101001
1110010011
11111101
1111111011000011
1110001110
1111100000010101
1110011111
1110001101
10011101100
1111100101000001
10011111
11010111
11111000001
100100101110
111110
1111110101100101
1111011010000010
1111011111100011
1111011101010010
1111101011101000
1111101001101010
1111011001000100
1111101111001011
1111111010101110
1101011100
101011100101
10100100010
1011100110
10011100011
10011011101
1010101010
10111111011
1111101011101101
1111101111011101
1111111011100111
1111110101000111
110001011
101100110000
11101110010
1001111011
1110110110
1000110111
10010000011
111100100
1111111101111110
1000011110
1111111110010010
1011111101
1110101111
10110110
11111101
11010110100
1111110110
101000000111
11110100110
110100100
1010110100
1111111001000000
1111111001111010
10100000110
1011001101
110111
1110100101011000
1111101000110111
1111100
11111010001
1111101111101111
1000011111
1001011010
1101100000
1100001101
10111001101
1010111110
11110100100
11010100000
101011111110
11010001110
100000101001
1101010100
1111111110011110
10101001000
101011001001
11100001010
1011100010
1111100001
1111101111111111
1101100000
10110001010
100110010
1111000101011010
1111001011011110
11010101000
1111111100001110
1111100011110111
11101001
1111111101110010
11111001110
1000001100
111101000
11110101010
11001001011
1110001111
10100101100
11100010011
11101101110
10100011110
10110111010
11100101
1101111000
1101111111
10101000011
110110001
11000010010
10100001101
1111111011111101
11111100101
1010010111
1111100111001011
1111011010111101
11110011
1111111110110101
1111111100110001
1111111110110111
1111100011101010
10011111
1111111110001101
1110
1111111001010111
1111110010010000
10001010
1111111111010000
1111111111100001
1111111011111000
1000101011
1001101101
11001000
1111111111101001
1010010111
1110011101
1101011100
1101110011
10001010010
1111110001100110
110101000000
1111001101011110
1111011000100101
11111000
101010110
100010000
1000010
10010000111
1101101000
10011000001
1111110101101101
101010000
1111100111101110
1111011101010111
1111110001111110
1111111111000110
1111111101111000
1111101
1111110111010001
1011110000
111101101
1000110000
1111111110000110
1110100
1111110010111100
11011110110
1100011110
1111100110000000
1111011111100111
1111010000110111
1111011110100001
110011101
1111111010111111
11001100
1111111101000111
10110010111
1110111100
10100000100
1111101101110101
1111101001000101
100110110
10000111001
100001110100
100101100111
10011011000
11011100100
100100101101
101101111000
11101111100
1001000101
10111111100
11101010011
100110
1110001101
1111111011000011
1001011000
1111100000000100
1100000010
1111000111000110
1111100010011000
10011101
1111111110110111
100101110
1111100111001011
10010000100
1111101001001011
1111110101100101
10110110001
1111111111100000
1111110000001000
10001101010
1111111111010100
10000111011
100010111101
11011011111
101101
11001001001
101010010111
11001011100
100011011110
1111111001100111
1111110011101100
110001100
10000111001
10011000
10101111000
111101010
11001000
1111111011100000
1111111101011101
1111111011101001
1111111100011101
1111111011011000
1111010010000110
1111101010110001
1111001111010001
1111100011001110
1111100111101011
1111110010111000
1111101001001000
1111111000110100
11110011001
1010010
1111101111100111
11000011100
100000110101
1111111011100011
10001010110
110000111001
1000101111001
100010100101
111000100111
111011010001
1111110000011111
1001100010
1111111111110001
10110100
11000101
1011010
1000000
101000111
10111010
100010001001
1111110101011000
11110000011
11110001111
101101011001
1000100110101
101110010111
10100101101
100010111011
110000001110
1111111111010110
1111111010001010
11010101100
111100011010
100111101100
1101000001
1111111111
10011111101
1101110
1111111111010111
100100000
11111100
100000011
