10011100
1111111100111101
10001110
1111001
1111111011011010
1111111101010111
1111111010101110
101010101
11110100
101011001
101001010
1111111110110100
1111110010000100
1111101011110000
1110101010
11110110
1111111111101110
1101
1111111010110010
1111111011100101
1111111100000110
1111111010101100
100001111
1110101
101001010
1111111011110000
1111111011111100
10000111
11011010
11110110
1111111101010010
1111111111110100
1111110100111110
1111110100100100
1111011000111000
1111001001000000
1111011101111001
1111010101001110
1110111010100111
1110001001010000
1110010101011110
1110111110101100
1111011100101111
1011011
100000100101
10100101011
1111011111110100
1111001101101111
1111001010011011
1111000101100011
1111011110110100
1111101001110000
1111111100000101
11011101
1111111100010001
1111111100110101
1111111111010001
1111111101110110
10000000
100111001
1111111000101001
1111110000100110
1111110010011101
1111101011111001
10000000011
11001001011
10010011000
1111111111011101
101000010010
100000110010
11011110010
1111111100001010
1111101001100000
1111111101100101
1111111110001111
1111011010110100
1111111110011110
1111111101110101
1011110010
10001001101
100000000111
11110011000
1111111010110011
10101110
11100
1111111100100110
10110011101
10100010001
1011111011
1111111100000001
1101010
1111101100111000
101111000100
101111000011
101001011100
100101000100
11000011000
11111000010
100110011001
101011001
1111111101010000
1111110001011100
1111111101010100
1111101101110010
1111111100011010
1111111011110011
1111101110001010
1111100101101000
1111100111100100
1111101110101000
1111111110110011
1111111111000110
1111111100000000
110110011
1100100100
11101110101
1111111010011011
10001010000
10001000111
1101111110
11111001011
1001110111
10001110000
10010101110
10001111111
111100010
100000010
1011010010
111001011
1111101111001000
10110000
11011111
1111111111101011
111110101
10011011100
1111100110001101
1111100010100100
1111101010100100
1111101000011110
1111011111111010
1111111111011111
1111111011001111
10011100110
1111110001000110
1111101111111101
1111101000110110
1010111010
1111101101011001
1111100101000100
1111111100101100
10011001001
1011101010
1111111110011001
11101111
1111111101010001
101100001
10011001111
1101110
10000000100
1111111011000001
10111011010
100010111110
10111001001
10011101111
1111110001101010
1111011000000100
1111101000001111
1111011111111111
10000011
10010011100
11010110011
1111100100011010
1111100111000010
1111110100101000
101001100
1111101100000110
1111101000001001
1111111010100100
100100101100
1011100011
100001000
1111011111
100011110
1100000
1111111101011011
1111110100011101
1111111110011110
1111110010111011
1111111010011011
1111110110110110
1111101001010001
1100101100
111100100
1111000111011000
1111101100100111
1111100100011011
11010111
101011001100
1011101110
1111100110010101
10110010010
1111111010000111
1111111011110111
1101100000
101101110
1001110100
10001110110
10011111100
10011111110
1000110100
100000101010
100110
1111101010100101
1111110010100010
1111110011001001
100110111
1000111011
1101101
1111111111110001
10111010111
10110110
1111100111011111
1111111110111100
1111110010111000
1111110110001001
101001111
1111110110101001
101100100
10000011101
1110100011
1111111011110101
1110
1000001110
1101011010
1100000111
11110110100
100100010001
100001110011
111100111
1001101100
1111111011000000
1111111001000001
1111111100011000
1111111000111001
1111111111001011
1010101010
1111111111110100
1111110001000100
1011011
1111101000001000
11100111010
10100000101
110000001
1111101101001100
10100100001
1011110010
1011011100
10110010010
11000100000
101101101
1000101010
10111010
1001101000
1110110101
1111101000000110
1110111101100011
1111001010000110
1111110101101101
1111110
10010101100
1111111110110111
1111110110110111
1111111010011100
1111110011110011
1111101101000010
1111111111010011
1111100100100010
1111110101101111
110111001
1111111011111110
1111010
1111101001000001
10110001111
1111111101110101
11010011100
11111100001
10100111010
11000011
1111111101111011
1111011110010011
1110101101100100
1101111011011000
1101110001000011
1101110001000111
1110110011010010
1111001011010111
1111111111010101
10000000111
1111111101010010
1111110010001111
1111111011111100
1111101010110011
1111101011011000
1111011100001110
1111101000111111
100101011000
10100001010
1111101101000110
1111111011001010
1111111100101111
1111010111000101
1111011100100001
1111100111101101
1111010010000111
1110110111110111
1110100001000110
1101111010011111
1100101001101000
1100110010001100
1110000001101110
1110100111110111
1111000101111001
1111011000011101
1111100010100010
1111111001100001
1000000000
1111101110110110
1111110111001110
110111100
1111111010010100
1111100100100110
1111110101011100
110010000
101010100101
1111110110110011
1111100101100111
1100111
1111101010001111
1111010011011101
1110100111110001
1101101110111100
1101101110011000
1101000110011111
1101000000110101
1101101011100100
1110011111111010
1111011100001111
1111111000
10111001100
10010110000
11011110001
1111111110010001
1111111010111100
1111101100011111
11000100
1111110101001100
1111111001001001
1111111000010011
1111101000000010
1111101011110111
10111010
10011101100
111111110
1111100100111100
111101100
1111100111110010
1111111100101011
1111000110010010
1101111110000011
1101110111000100
1110100110010100
1110111101100001
1111101000010101
10011110100
11001000011
101000111111
100110110000
100100101100
11001100011
1111110001010001
1111101100110010
1111111011101010
1111111110101101
10010000
10011100
1110100011
1111111000111010
1111101110001110
1111101100101111
1000111011
11000001101
100101111
1111110011100001
1111110000101111
1111011000011101
1111010101010010
1111011000011111
1111011111100000
11001001011
11111011011
101100000010
110100001101
100110110110
11100100110
11001011000
100100001110
100001010000
1111111000100011
1111101000000100
1111101101100110
1111
100111110
1111110101100000
1000010011
1111111001111100
1111011101110100
1111110000000101
11000001001
11100001010
1111111110001110
1111110001010000
10101111111
1111111000110010
1111110101100001
1111111100111011
100110100110
101000011010
1010110101
100001111010
10001100111
101110101
1001100111
10110001000
11101010111
1001011110
1111110110101011
1111101011101011
1111110010101110
1111110100010010
11001000
1111110011110110
1110100001
1111110001100010
1000100011
110001110
101100111111
111101111111
100001100000
10110110
100011110010
1111111000100110
11011000011
11011001010
101001100100
1001110110
1111110111110011
1111111110110110
1111111111100101
1111111110010010
101001010
1101101011
10010111100
110111011
1111110101000010
1111110101101100
1100001101
1111111000000011
111010101
1111110011011101
111110010
10110101010
10000111010
100101101
100111010010
110101101111
100101101010
1111111011011011
101100111000
1111111011111101
11010100000
101010011111
10111100011
1110100010
101011101
100001011
1111111001101101
1111111000010100
1010110011
1111110111010110
1000101
1010010101
1111111010100100
1111111100001010
1011011010
100100000
1111111101010011
1111110101100001
1100001011
1101111101
1111100101000111
1111011100000100
10100101011
101110001101
1000010111101
10010001111
100000010101
100011001
111010010101
10110111101
1000010011
1111110110101100
1111110111111111
11111001
100001011
10111110
1111111010000100
1100101111
10101110011
101000111
1111111011010100
11000000110
10011001111
1111001010
1110101100
1111111101110111
100111
1111111010100011
1111101001111100
1111111000001101
110000010111
1101010000
100010111111
1111100111111001
1111110101001001
1111110000011101
11101000
111010011
1110001
100001001
111001110
1011111111
0
1111110110011101
1111110110111011
1100111010
11001111101
1111111101110011
10100010110
101111000
1111000
1111111110000001
1111111110111111
1111111010111000
1101001
1111111010111100
1111100101010011
1111110000111101
1010110111
100101010011
10100010110
1111111101110001
1111100111010011
1111110010110001
1101011001
1110101111
1111111001000100
1000011010
1111110110000111
1111111010000110
1111111001101011
1111111110101111
100010011
100011
10100110
1111110101110100
10001
1111110111010011
1111101000010000
1001010011
1111110110101100
1111110111101101
1111111101011011
101001100
1111110001100010
1111111110010010
1111110001111100
11111101000
1011000111
1111111011110010
100000101111
101011100100
11011011111
1111111111011110
1111101101110000
11110001
110110101
1111110111001100
111010001
1001110100
1111110110011000
1111110011100000
1111110010000101
1111110100011011
1000001001
1111110000110000
1111100001111110
1111111010110110
100111
10111010111
101011010
10100
100001010
11001010111
1001101010
100001011100
11010100
1111110011100110
1111111101101000
111111101101
1111001001
10001011011
10101111
1010011100
1111111101110010
1111111110001010
1111110110110101
1111110101110000
1111110100011001
1111101110011010
1111110010100111
1110100011
1100001100
1111111010111110
1111110101010110
1111111000000000
1111111101100001
1111111101001101
1110001001
10011000100
1110001100
1001101010
100
1111110111110010
1001011
1111111100110110
10000110
1000010011001
1111101100101000
10010001100
10111110110
1100001011
10110010001
1010101001
11000100
1111100011110000
1111110000110111
1111110000100001
100011000
1001011111
1010100111
1111111110011001
1111110001010001
1111110100011111
1001010
10100110
1111111101101111
100100110101
11001100100
1111111000011100
1111101000000101
10000000
1111111110101110
1000000
1111111110111100
1111111001111000
1111101000000001
1111111000010001
1111101100011110
1111110101101000
11001011001
10101101101
11000010100
1111
1111111110100110
1010110010
101011
1111111111011011
1111111001101110
1111101100001010
1000000001
1001011
1111111110001010
1010011111
1111101110011111
11000001001
1111110100110101
1111101100001011
100000011
1111110111100100
1111111011011000
1111111101010111
100001110
101011111010
1111100010011011
10100110010
111100
1111111010010000
1111101111001111
1100100111
11111111000
10111101010
1111111110100001
1110100110
1000010011
100101011
1111110100000001
1111100110011010
1111111000010001
10111011110
10101101111
1001111001
1111110011100000
1111110111111100
1111100000010001
1111101000101000
11000011101
100001101000
1111111010100110
11100110
10010111
10000001
101
1111010101110111
1111010000000101
1111001111101000
1111100010100010
1111101010001110
1111100000111011
11111100
1111101000010001
11110011
1111111111010110
1111111010000101
1111111000010111
1111111011011101
1111110110001101
10000101100
1111101001000101
1111110001101100
1111111111100010
1111111111010010
1111111010111100
1111110101011100
1111111011010010
1111111110000000
10110111
1111111111010010
100101011
10100000
1111111011101000
10111001
1001001
1111110110001001
1111110110101100
1111111100100101
1111111001000110
1111111010001110
1111110110100110
1111011100100011
1111110110100000
101101010
1111100101000000
1111101011111111
1110011
1111111001100110
1111100001010111
1111101111101010
1111100011000111
1111101011001101
1100001
1111111010100101
10111101
10000010
1111111101111010
