1111111100101011
11001111
1111111011000000
1111111100110111
1111111111100011
1101000
1111111011100011
100011111
1111111011100110
1111111110000010
10111000
1111111011100001
10100100
1111111100011000
1111111011011011
1111111110101010
1111111100001001
11001
1111111101011101
1110
1111111111010001
1111
1111111111110010
100001
1111111011000000
1100101
1111111101101000
1111111100001011
11110
1111111110010110
1111111011110110
1111111101101000
110100011
101100001
11000110111
100110001101
101110100010
1000011101011
1010100100010
1001111100
100111011
1111111000110001
1111111010111110
1111101001001010
1111110001000110
1111111000000000
1000100111010
110010110001
11111001101
11110011110
11000101100
1010111011
11001100
100001111
1010101
1111111110101000
10100010
10110010
1111111111001101
1111101010000010
1111110110101011
110001001101
111000110110
101011010111
1010010110011
1100001010001
1101011111111
1110100011111
1011000010100
110010100111
111000101110
1010001011001
1001000001111
111100001000
1100000010100
1110110001001
1111100000100
1010010010110
11100111010
111011010010
1111110111000101
1111110111111011
1111111010101110
10101100
1111111100111100
1111010
1111101011111111
1111111111111011
1111111100001110
10001100
1001100101101
111111010111
1001100110110
1100010110100
1001110111111
101010111011
1001001111
1111110110110000
1111111010111111
11110100111
1111111010110001
1111111101000001
110101011000
1010001101100
101010010001
11010110001
110100011001
110101010001
11101010
1111110011101011
1111110001100100
11001110
1111111011111001
1101001000
10101100001
1111110010101000
101001101
11110110001
111111011110
1101001111
1000101010111
11010100010
1010000
1111110000100101
1111101110001110
1111101010001011
1010110110
1111111010001000
1111110001101101
1111111011111011
1111101111010011
1111101001011010
1111111100110000
11011110
1111111111101110
1111101111110101
1101110111
11011010010
1101011100
100110101101
1110100
1111111110101001
110011011000
101000111
101011100110
11001
100000000001
10110011
1111011011000110
1111111010100001
1100000100
1110001111
1110111111
111101110
110111000
1011100
1100001111
1011110111
1111100010010001
1111101100000011
10011010010
10001000011
10010011101
100011111
101001010
10101000000
101110010100
100110001000
1100000
101000010
1111111000100001
1111101101111101
11100100100
1111111100000000
1111101101100101
1111110010110111
10110010
1111000011
1111111001101011
1111011110
1111111100010001
1010000101
1101001000
1110010011
10111000001
11011100
1111101101101011
1111110110011001
11010100001
1111110111011111
1011110101
1001101000
110000010100
100001100011
101011
1111111100
1111111110001010
1111100001001011
1111111000011010
1111100010010000
1111110111101100
1111111101111011
1111101101011111
1110111101
1001010
101101000
1111111011
101111110
10001111
1011101100
1101100100
10010101010
1110100
1111100111101101
1111110000100100
1111011110011010
1111110100101111
1111110010000110
1111101101110111
1111010100110000
110011100
1001110
11110010101
1111111100001000
1111100011110001
1111011010011100
1111010110001001
1111100101111110
1111101001001100
1111101001011100
1111111001100001
1100
1111101011111100
1111110000001111
1111111101100000
1111110010011110
10000001
1101110010
1111111010100011
1111101000011100
1111100110000000
1111010011100100
1111011111010010
1111110010001011
1111100010011010
11001001
100111110
1111110100110101
1111111000001001
1111111101111000
11111111111
101000111
1111101100100110
1111011111110101
1111110111000011
1111111001100101
1111101001011101
10100000
1111101010100000
10101011
1111110101111100
1111111100010010
11010011
110
1010101011
10100000
1111101111010011
1111100110010101
1111010000001000
1111000010110101
1111000111100100
1111100010111011
1111110000110001
110011100
1111101000011000
1111110100111110
1111111000000011
1100001110
1001010100001
10010101111
1111101011110111
1111111000010110
1111011100010011
100100001
100011100111
1111110110011100
1010001
10011000101
1100101110
101111001
11111111
1111110110111101
110110010
1111110010000001
1111110101011101
1111101010011100
1111001111110011
1111001010100110
1111001001101000
1111011001011010
1111110100110111
1111101011110000
1111110011001101
1111111010101001
1110100101
1111110101100000
100110010000
1011111101
1111101001101101
1111101110111110
101110111
110111111
111111100
1111100010
101010011
100001100111
11011101011
1111110001001010
1111110010111011
1111101111100110
10000000100
100100110100
1010010110110
101011011100
100011111
1111101110111001
1111100100000111
1111101011111100
1111110001100100
1111111111111100
111101010
111101110
11101000011
100111010000
11100100110
1111110001000010
1111101000110011
1110111101111010
10110011
10100001101
111000101
10000000001
1111110100100011
1100001010
10110001110
1111111010100101
1111101111101101
1111111101011000
10010101111
1100000110101
1111100001010
1100101101010
11101110010
1000001111
1111101101001000
1101010
10001010111
11111011101
10100010100
11101101101
100011110100
1100011110
1111101010100010
100110101111
111001100
1111010010101000
1111011000111001
10001000000
10000100
10010100010
1111111110100111
1010001011
1111110101101010
1111101011010001
1111110100100001
11011001110
1000001000001
1110110101000
10000010000001
1010000010010
10111001001
1111111101011111
1111111110010111
100111100111
101000001101
100110111110
100001001111
1010001010
100001100010
101100110010
1111111111001110
100111011001
10101000001
1111111101001001
1111100110100001
101100111101
1111111111110011
1100001111
1111111110101100
1111110110000010
110101101
1111111100111000
1110010101
100001110010
101010100010
111110101110
111010010001
100011000001
10110010100
1010101111
1011010010
11001000011
1000010001
10001011100
11001100001
1010101111
1001010110
1010010110
1111101010101101
1110100100
1111110100110100
1111111100001000
10101101110
1000101011
11001100
11011011010
1111110110111110
111101110
1110110001
11110101100
100111111110
110001011101
1000011110010
1000100100110
110101110000
1101111100
1100000111
100110111
1001001000
1000000101
1111101011001100
11110110
110000000
1111111010111000
10111
100101010
1111110001011100
1101011010
1111100001110000
10010011101
10011010001
1111110011110011
101000101
1000010010
1111111110110000
1010011000
11101000101
10100011010
100001100110
101110010110
111100101010
111111111101
101001000000
111100110
110000001
1111111011011000
1111101011100010
1111101000000010
1111101100001111
1111101101011000
1111110101001111
10010
100100011
101100010100
100111100111
1111110101111010
1111111100000100
10000010010
1111111001100100
1111100100000101
1111111000111111
1111111000010110
1111110101110011
1111110001001110
10010010011
10001100001
1110000110
101001111001
110010101000
101100000101
1110011101
101111
1111111000011001
1111100000000111
1110110011110110
1111100111010000
1111110110000111
1111110101111111
1111011100110101
1111100011011010
1111100000010100
1111000110010110
1111011111010110
1111101100001101
1111101110100010
11100010001
1111011101111110
1111101110000101
10101
1111111001010100
1111110100101101
1111101111011110
1111100001100111
1111101100011101
1111111100010101
1011110000
100001111100
10111010000
1111111110100100
10001000
1111100101001100
1111001100001101
1111001011101000
1111100000110001
10011
110111
1001010000
1111110111100010
10001111111
1111110000001100
1111100101010010
10111110111
1000101100
1111010001111010
1111010000001010
1111110011000101
1111011010110100
1010111111
1111100111001100
1111100000011111
1111011111101101
1111011111010110
1111110001011100
1111101000011000
1111110100100110
1111110010000011
1111111111100010
110001110
1110
1111110010101111
1111110101110000
10010001
1111101110110110
11100011
10001100101
1111111001101100
1111101111100110
1111101110111000
10100011100
1111100000011001
10010011
1111010110110110
1111011010000011
1111110000000100
1111001001000110
1111111100111110
1111101111100100
1111011011000011
1111000001000100
1111010110111010
1111010111111110
1111010011110100
1111011010010110
1111111001000001
110110101
100011010000
10101011111
110110000
1010011101
1111111011001111
1111111010001001
1111110111100100
1101100000
1111100011001111
1111100001111110
1111111000110101
11110100
1111100101101111
101100001
11010101010
1111111110100001
1111111010010010
1111101000100111
1111010010011111
1111110100100100
1111011001011010
1111010101010110
1111010001010100
1111011100010011
1111101100010101
1111101100111011
1111101101000100
1111111100101111
10000000111
1111110101100000
10001110
1000011110
1111110001000110
11010010
1111100110101000
10001111010
1111101010010101
1111010100000001
1111010000011001
1111011010000000
1111111101101000
1011110100
1100101111
100000100100
1111111001100001
1111111011000110
1111110010110010
1111111010100011
1111100101000101
1111011101010110
1111011010011011
1111110001010011
1111100
1110101
1111101010000101
1111101110100011
101110001
1111111000101010
1111100111100000
1111110101011010
1010011001
100000010111
1111111110101100
1111110111001100
1111101000011101
1111100101011010
1111110001110000
1111101100001010
1111111001001110
10001011
1111111111001110
110001101101
11001000010
10010001001
1111111001100101
1111011100110111
1111111100100111
110010000
1111111111000001
1111110110111111
1111111101001001
11010100
11100110
1000010011
10101100010
1111111100001100
1111100100100000
1111111100110011
10011111101
11011000111
10101101001
10100110100
1111111101001010
1111100010000101
1111101110100110
1111101101010011
1111101
10000000
1000100
1010010100
11101000101
1101001010
1101001001
1000110010
10101000111
10000110010
10110111101
11000011110
11001011111
11100010010
11000001011
10110100000
11000111110
10001010001
1111111000001111
1111111111100101
11000000
1111111010100001
1111111100101110
10010100010
11101111
1111101000000000
10110000000
101100100
1111111111010100
100100111
1111111100110010
1111101100
1111100111011001
1111110011110000
1111110110010011
10010111111
11110001
1100111100
1111111111110010
11101100010
1111110011111000
1111110010101001
1111111010101111
1111111111010110
1001100010
1000101011
1111000101
1111101011100110
1111110101010010
1111101111011100
110100100
10010100011
1111111011100110
101001010
1111101111000001
1000110000
11110000
101010101
1010110
1111111101010111
1111111011110110
110110010100
10101011
11001010100
10001010111
10111101111
10111111
1111111111110011
1000101000
10101001101
1111111101111000
101010
1111110111110111
1111011101001110
111010111
1111111100001100
1111101101101100
1111101100001010
110001011111
1111010
1111011110111101
11101000000
1111101111100110
1111111111111011
1111111111001100
10110011
111000
1111111111011110
10
1111100101110001
1111001110000001
1011101010
1111110111100111
1111101101110000
1111100111111101
1111100001101011
1011011111
1111111000100011
1110010101111100
1111100100100111
1100010001
1111101011101001
1111000101001010
1111101001100110
1111010010110011
10010110011
11110111011
10011110000
1111011001110111
1111111100111101
11011000
100110001
1111111111110110
