1111100010001010
1101001100
1111011110011100
11111101
110011000000
1110101101000011
1111001101
11100110001
1110101101011001
11000101000
1111011000111101
10100100111
1111010011001110
1111110111001001
10010000000
1010010001110
1111100101000100
1011001100001
1101110100010
1101100001
1111001101000010
111001000010
1011111011110
11111010
10000111
101100010001
10110110
1111010110000110
1111110000111010
1110011110011111
