1111101001101110
1001010010110
10100110011
1111101011100110
100101111000
1111101110100101
100100001011
1110111111010001
11101111000
100110010111
1101111001001101
1111101101111101
1111111000011001
1001111111011
1111100000010110
111010110110
1111100011100101
100101101
1110111101010001
101011101111
1111110110100001
11010011100
1111101101110011
111010010111
101110101001
1111010111101011
1111101110011110
1110001110001011
1111001010011000
1111000111010001
