1111111000100101
1111100001001000
1111011010011000
101011010110
1111001111110001
100000001001
1111101101101101
1101000010000
110101101110
1111001100010001
1110110
11110000110
1110111000001100
1111011011100010
1111110000100100
1111100011001011
11111010
101000100000
1000010001001
1110111100001010
1111100010101101
1110100001010100
1111110001110111
1111101000010110
100000111011
1111001011111100
100000011011
1011100001
100101100100
101101110101
