1111011111011100
1111111011001101
1111100001001101
110100001111
1111100001010110
1111100011001011
110000000101
1111101010111100
1110001011
1000101000
10110101101
1111011101011000
1111101001001111
1111111111010111
1111010110001111
101111100111
1111111010011101
1011101010100
111010111001
1111100010110010
1000011000000
1111100100011001
1111010101111011
1111101101110010
110100110001
1111111001110001
111100110101
1000100110111
1111000100100101
1111111101100011
