1011011011
11101100110
1111100110101100
111011100000
1111101001011111
1111011000100010
1110101010001111
11000001000
100010100101
1111010100100000
10010111000
1000100110010
1111011100111111
11011001001
1111000100100110
1110000000011111
1111111100001100
1111111100111000
1101111100000
1111001010110011
1111100111011001
1111100101110111
1110101100111111
10011110111
1111111010100001
1111010010110001
1101000100
1101101100100
1111011100110001
10111111
