1110101110110111
1100011000001
1110011100101110
1110110101110100
1111001110100001
1111011110010100
10111001000111
10101000
101001000110
10100001100111
1110111111110000
1110111111111000
1111110001111100
1111001111100101
1111011011110001
101010011101
111111110
101111101
1110000111101111
1110111101011111
1111110110100101
1111000010110
1110011001111111
1001011011011
100011011
1111000111100000
110111000110
1101100111110
1111101110010101
101001001000
