101000011
110110
11111001
1100001
1111111110010100
1111111111101100
1111111111101110
11001101
111
1111111100001000
1111111011011010
100001101
1111110010011101
1111101001010000
101001110
101111
100111011
110011
1111100
1111111010111110
10000001
1111111101110010
10101101
1111111010111010
101010001
100111100
1111111011011110
100000
1111111101111011
100111
1111111110100011
101011100
1111101111001010
1111100111000000
1111011010010010
1111001000100101
1111100000100011
1110111101011000
1110011111111000
1111101000100010
1111110001010010
1111101001011011
1111110100111011
101111000000
1000111101001
110011001100
1111100001001011
1110100111001000
1110111110000101
1110101100111001
1111001011011011
1111100000010110
1111111110110010
1111111111011011
1111111110011101
10111001
1111010
1111111110011011
1111111001100001
10000000010
1111100101011111
1111010100011000
1111011001010101
1111000100110010
1111100110111011
10011101
110001010
1111110101011011
1111101100100101
1111101101000100
1111111101010101
11110110001
101100000101
101111010001
100011111000
1111011111111110
1111101110000110
1111001000011101
1111001111000001
1111010001110110
1111000010010010
1111101000111001
1111100
11011110
1001011
11011010
1111111011110111
1111101011001011
10101110010
1111001111100001
1110101110010001
1111000100101000
1111110011000010
11001000
10010111101
1111110
1111110110000101
100010011110
10001000110
11011001100
100110010010
100000110111
100100000101
1000001111
1111110110011100
1100110
1111100101110111
1111010101110001
1111100101100110
1111111001001000
1000100001
100100
101000010
1111111110110101
1111110011010011
1111101101000111
1111101000111001
1111101011000001
1111110110001101
1111100000100011
1111101011011111
1111101111001010
1010101110
100101000101
10110010011
10110111000
101001000000
1000000001111
1000111100001
1001010101001
100110001011
1111011110101011
1111100001110010
11111011
1111101101011010
1111111000010000
1101010010
100010111111
1100100101
1111101100110010
1111111100110101
1111111100010110
1111100111001110
1111111011010100
1111101111001111
10110001000
1111111111010111
1111101111111010
1111011100000010
1010011000
101100100010
110000011110
11001010101
111000110001
111101000010
111000110000
1001000011100
11111000000
111011111
1101100
1111101010000101
1111101010010110
1111010110010101
1111111010001101
1111100000110011
1110111000
1111111000011011
1111100110010100
1111111010111100
101100111
1011101001
101110110011
1111111110111100
1110011110
1110011000
101110000111
10101101000
1111111001000010
100111111010
11001100111
101101011101
110111101000
110111100110
1000010001100
1000010010111
11010000000
101011
1111101001010010
1111111010111001
1111101100100011
1111101000011100
101111000
1111110101010100
1111101111001000
1111110110101110
1111101100011010
100101000
100101010110
100000111110
11000110101
1111111011010110
1111111110111100
11001101001
11001101111
1111111011110001
10111010
11010011100
10010000101
11111010100
101000010010
110010110000
111100011000
110101011100
1111110110100101
1111111000001110
1111110000111100
1111101110111110
1010011001
1110101111
11001111010
11001111001
1110101011
1111101110001011
1111101100001101
1111101111000010
111010001000
1111101100111000
100101111
100101001
1111110011101000
1111101101011111
1111101100001110
1111111011000001
10001001100
10100110010
1010111100
10000000011
110000110010
110001001010
100110110100
100000101001
1001000001
1111111010010011
1111101111100100
10001111001
10110011
10110100101
110011111011
1000111010101
101000011111
101100101
100101011101
111110111
101110100010
1111101000010110
101001000101
1010001011
10100101100
1010110111
101101101
1100011111
11011010111
100010110010
1111010001
11111100010
111110101101
111110010111
11000111110
110111
111010001
1111110011000101
1111110101000000
1110101111
10101001001
101000011000
1000111101100
110111101000
111010100101
101111101110
1111111010111001
111000100
10100111001
110011101001
11110110011
1111011101111010
1111010100
11101010100
10100101110
1101101
1111010101
11011000011
11001111001
110001011010
101111000001
100011011101
11011010
11100011
1110111
1111111110001011
1111111011101001
100010011010
110000110000
111111001010
1001111011100
1100110101011
101100010000
10111110010
1111110100000100
10000011
1111111001
110011101111
100011110100
101011000011
11110001111
101001101000
1111111110011011
101010
1111111111011000
1010110110
10011111101
101000010
1111111010010110
1111100110110101
1111101110001011
1111101111000111
10110000110
1100001111
11110011110
100010100011
10100010100
1001001110010
1001111001100
1100101110001
1011000101001
10011000110
11110111000
101011100
101011100
110011101011
100111010001
1011000000101
110001001101
10100010010
10010000011
11000111101
110111100
1111111000101001
1111101101011111
1111100010000001
1111001111011011
1111101100111010
1111100111010100
1111110011001001
110100000
1000001010
10011011001
1111111101100010
1111111000100001
10001010000
101111101
10010000101
1001110000110
111000111111
100110111011
1111110110100000
1111111000101100
110000100100
100000101111
1010000000100
10100111
1111111110111111
1001010110
1111101110011101
1111101001001000
1111100011000011
1111100110111001
1111101000110010
1111100010010100
1111100101110111
1111010000111110
1111101001111101
1011101011
1111111101001010
1111110111000111
1111101101110111
1111010100111001
1
11011010100
111010010011
1001110110001
1010101111110
11011011011
1111110100110110
1111110001001100
11010000000
110010110
11111110110
1111011100000000
1111100
11010001
1111100011011111
1111100100110111
1111100000001110
1111110001111001
1111110010001011
1111100111011100
1111011110000111
1111011001000010
1111110001010100
110011010
1000000101
1111101111000001
1111100110101111
1111100111111110
101110010
101011000011
110001011011
100111111000
1001010011101
10110100100
1111110111110100
1111101101100000
1111010110100111
1011010101
1101011
110110
1111100100100001
1111101110111111
1111110100001110
1111100101101010
1111101010000001
1111111111010111
1111111111001101
1111010101101010
1111001000001011
1111011110100000
1001110
10000001101
1111111000
1111111100011100
1111111011101001
1111111100111101
1110010010
11001111001
11101011100
11000000000
111000101101
1111111100110111
1110000000
1111111011001110
1111011111110010
1110111000
1111110100011100
10001100001
110110011
1111110000010000
1111110111001100
1111101110011011
1111111111101110
1111111111110000
1111101111100011
1111011000110000
1111001111100001
1111110011000111
1100011001
10000011010
11111101
10100000001
1111111011101101
1111111001101011
11101101001
100110111100
100001001
101000010010
1000101110100
100110110111
100010101
1111111000110001
10101110
100001100
1111101101011101
10111010001
10111000001
1111111001010110
1111111101000011
1001
1111110110101010
1111111101110110
1111110000110100
1111101010011000
1111101111000111
110110100
110011
1000011111
100100111
1110010
110101111
1111100100101110
10001000011
10100001111
1111110110010001
1111000010
100001101111
100110001111
11100010000
100111110
11011010111
11001
11010111
10011010011
1110100111
1000
11100100
1111111001000011
1111111111001000
1111101111111001
1111100101000101
1111110111000101
1100100011
1111110111111011
1111101101101001
110111
1111110000001110
1111111100111100
11011010100
1011
10001001000
10101011111
10001000010
1111111010110101
1111100110001010
1111011101110100
1111110000100000
11110111110
100011101111
1111110110111111
10000101100
1100101100
1000110101
1111111111100110
100111111000
10001100101
1111110101010111
1111110110101100
1011100100
1010001
1111111100010010
1111011011110100
1111100010011110
10001000101
1111110010011110
1100101011
1111110111000011
1010110101
10101100101
100000011
1101101101
11001011011
110010000000
1111100100100101
10110110
11110100
11110000100
10101100010
1111111011
10111100110
1111110111100100
111111111
1101101010
100010000100
100110101001
11101111010
1110011010
1111001110
1111110101000001
1111101010101010
1111101011001000
1110010111
1111101110011100
10101001001
1111010010
11011011111
100101010000
11010101001
1111110011011011
1010010011
101000101101
10100100010
1111110100111000
1111111111001111
101010110110
101001101101
100000001010
1000001100
10101111001
1101100110
101110001
100100110110
100011111010
11111001111
11101111011
1111110111010110
1111110011010100
1111110001101111
1111111000000101
1111111100100111
1111111000110010
1111110111100110
1101111110
100001011010
1111101100
1111101100110111
1111101100010100
11100100110
101100010001
1111111110110011
1111110111011001
1111110000111101
101001111111
111000111111
1111111110110110
1010001101
1110110001
1111011101
101011010001
101000100100
100010100100
110101111111
101110110110
10111011101
1110011101
1111111000110000
1111101101000111
1111101101001000
1111110111011000
1111011010110101
1111100010110111
1111100101101110
1111111001101000
1111111111010101
11111000101
101001110
1111011111101101
11101101
100110000
1111111101110101
1011100110
10100001001
100100110001
111011111
1111110101010001
1111101011001110
1111111101010110
1111110111001001
101100110
110001001010
100111111101
11001110101
11101111110
10001010101
1111110101110111
1111100010110010
1111110101111001
1111110001001010
1101010
1111100110011010
1111101111011101
1111101011011000
10101010011
1111111010010110
1111011011010101
10011111
1111111011101110
1111111110000000
10100010000
11001100100
100010100101
110000010
1111111010000010
101001111
111111100
1111110100101101
110000000
101011111101
11111011001
1000001000
101111000
1000011110
1111101000
10000011110
110000111
11010110
110101100
1000010110
1011100111
1111001011011010
1111110010000011
1010111001
1111110111110110
11000100
101000000
1111111101000001
1111111011100111
1111111110111010
10011111101
100010110010
101001101
11010000111
10000011111
1111111111100111
101110011
11110100101
11010111101
10100001010
101000001110
111011001000
1010111000100
101111010101
10011010011
11001000101
1001101101
1111110101001000
1111101011010011
1111011010010011
100000100
11011110100
10101110111
1111111111010101
1111111011010110
10010110
1111111010110010
1111100000
1111011010000000
1001011110
11101001011
110101111010
100101100001
100010001001
101110011011
1000011000010
1001111010010
10000101001000
1111101100010
1011101010100
1001011011000
100010111111
1000110010000
110001010001
1010000101110
111101100011
111011111010
11100111010
1111101100000011
110010111
1000011
1111111011110011
110111
11011111
1111111010111110
1111111011110010
110101100
1011000000
101101101
1010001101
101100010111
11011001011
1000111001100
1000100001000
111101100011
1001010010011
1100000010100
111101000011
1000100100001
1001011111010
111000111101
101011101010
1111101011111011
11010110
101010010
1111101011011101
1111111010100100
1111111110111010
11011101
1001110
