1111111111101110
1111111101011001
1111111011000101
11001
1111111110010001
100101110
1111111010110010
11101001
1111111101011110
1111111111101011
1111111011111010
1111111111111110
1111101100101000
1111100010010011
100100111
10010110
1111111100100100
1111111111101000
1111111111011010
10100111
1111111111000010
101001011
110001
1111111011011000
1111111011010101
1111111110111111
100110001
1111111111001010
1111111110000111
1101001
1111111101101010
100101100
1111111100110100
1111110011110000
1111011100000100
1111010100011000
1111101111000011
1111110111110011
1111100110101000
1000100100
1111111011010010
10110101000
11010000
1111110010001101
11101011011
1011101111
1111000111111110
1111000011001101
1110110001001001
1110101111011110
1111010001011010
1111101011111101
1010001
100111010
1111111110111111
10001011
101
11110111
1111101111100110
1111110100000001
1111101100001110
1111101111110110
1000010100
1111110101101110
1111100010000010
1111110100010110
1111100111111110
1111101000101011
111001110
1111101000010000
1111101010101000
1111010111000111
1111101101011100
1111111111110110
1111110000000110
1111001000000010
1111001101110000
1111010011001010
1111101100101100
1111101000001010
1111111011011100
1101101101
1111111100000011
11100110
1111111111011110
11001101
1111100011111010
1111101100101101
1111111011011011
1111101100110000
1111110000001100
1111110101110001
1111111000011011
1111010100001100
1111111110010010
1101101010
111001111
1111100111010001
1101001001
1111001
1100010
10100111001
1111111000101100
1111010000101101
1111011101110001
1111101101101010
1111010100000110
1111101111101000
10111110001
1100011011
11101101
1111111100101111
1111111100101000
1111111100110100
1111011011101111
1000111100
1111111101110110
1111111011010011
11111011101
101101001
1111100001100011
1111011101111010
1111110001001111
100010101100
100010011011
10011011011
11011
10000001010
10001000010
1111011000
111001000
1111110001000110
1111110010010000
11000010001
101000001
1111100110101001
1111111100011110
101110010100
1111100001111111
1111100010000001
10001100
10001110
1111001000011110
110011001
1111110110001101
11010101110
1000110010
1111111111110100
111101000
11111101111
10110001010
11101000110
10011000111
111010001
1110110010
100010011111
100101110
10010001111
11001100101
10101110101
1101110110
1101100110
1101011100
1111111001111111
1111111100011110
1101100111
1111101101100110
1111101000010101
1111111111010100
10110
1111111100010110
1111111110101100
1111100110000011
1111111010101110
1111110010111111
1001011111
10101101101
11111100100
11001000001
100011011
1111111000010000
10000011000
101110011101
10110100010
1010101001
11100000011
100000000001
100000010000
1000111001101
1000010100001
1000100100001
111100001101
10101000011
1111100010000101
100100110001
1111111110111101
1111111011010000
11111100010
11010111000
10010011011
1111111110101000
1111111100000000
1000001001
1111010000
11100101000
1000101101
100100011
101100010
1111111011101001
100001110011
1001101101
1111111111011100
11110000111
11011010101
100111111100
100101100110
1010101000110
110111110110
1001100011100
1011110110001
1101100010
1111110100111001
11000000111
11010101111
1111011110000111
10100101110
100101110100
1111110000
1111110011
1011010010
1010010
1111111001001010
11000110100
11010011001
10100101111
11001011011
111000111
1111111110101010
1111101111110101
10000110
10001101011
11101011111
100111011011
101010001001
110000100111
101110010000
11110011100
110110001001
1010110001100
11101101000
100010100111
100000001
1111100000
11011100100
100010010101
1111101100011000
1000110100
101011011
1111101101
1101010100
100110011000
110001011101
101101111110
1101010010
111100100
1100101010
1111110101101110
1111111011101100
101100101
11101110111
100110001010
101000110001
1001001011
1111111011010010
1111101010100111
101100110
11101001000
100110110101
1000111101101
1011000111
110010000
1000001000
110001010001
1111110110110001
11111010
110010110100
110110011100
110001111
100101111101
101100000011
1111001100
10100101000
10100000010
1111111010101000
1011110
1111110000110110
1111111001011100
1111111011000100
11011100000
110010010110
1100000100
10111010
1100101
100010111
11101111111
1000100010101
11111111010
1111110001001110
101111110
1111100110010101
110000011100
10011111011
11001110101
101010101010
1111110000
1111110101011000
10010111111
10010001010
1111000000
100101000101
100010100011
110110101
1111111100010010
1111110101111010
1111100111110111
100000011
1111111010101100
1111110100010010
1111111010001000
1111100010011101
1111110000111100
1111101110101010
1111110001010110
10000000100
111110011
1111010101110000
1101001
110010100
111001000100
11111010110
11011000011
10011111011
1111110011011111
1111111
10011101110
1111101101
1000101001
11000000111
100110011011
11101110011
1111101001101100
1111100001010010
1111111000000100
1111011110100101
1111100100011000
1111110000101110
1111100010001010
1111011000010101
1111001011001000
1111001110001000
1111101110100100
1111010000000011
1000110101
1000000110
1111110111110100
101100011
1111111101111001
110100111
11110011111
1011001110
10001111
1110100101
10000010000
1111111011011100
101011010
100001110110
11100101101
10001011
1111010110101001
1111101111000111
1111101110110100
1001001100
1101101111
1111100000110110
1111010001110011
1111001111000011
1110111001001100
1111000000100011
1111100011101110
1111101011011101
1111111011111011
1110101000
1111100100110001
1111101111111000
1111100001100110
1111101101100100
100100001110
10001110110
1111111001000111
1111110110010111
1111111001111001
1101100
1110010000
101011001011
11110100110
1111100001011111
1111010101011111
1111110011001000
1111101010000111
1100101000
1111111010001011
1111101101100110
1111010001111001
1111100110111101
1110110111001000
1111100011000110
101111000
1111110110100001
11011110
1000001001
1111110100110000
1111111111011101
1111100001001101
111000110
1111111011110110
100100100
1111111001100100
11001100
1111111001001010
1111111101111000
10110111100
100000101100
100000000
1111011110110011
1111100110110110
1111110010000100
1111111000110111
11001000010
1111111100001010
1111100101100001
1111110100111000
1111100100000011
1111011111000111
1111110110000001
111001101
1111110001000100
11110011101
10001100010
101100011
1111011011110110
1111011100101100
11110101001
111111111
10001010111
1111111011110110
110011
10001011101
11001011
1111111010100010
1010010101
10011011010
1111101100110100
1111011110001110
1111101001111111
1110010010
11100011100
1010101110
11001001111
11100000101
10101110010
101111101
1101101010
1101111111
1011011010
10111100101
100110011111
1010001
1111011111100100
110001010100
1000000000111
10101001000
11100001111
1000010010
10110011100
101110101
1101000000
1110101
1111111011111000
100001001
1111111010101001
1111010010010011
110011
1110101111
100101001
10000110001
1000011010
1111110110110000
1110001000
101110111
110010111
1000101101
10011011111
10000010100
101100010111
100111001100
1111110100001110
101101100110
100111011001
11001010110
10000100011
10110101111
1110100011
1000100001
110111100
110011011
1111111010100100
1111100101010011
1111101101101100
1111011110011000
1111110010010110
10101001
1111101100110010
11101011
1111110110010011
1111111010100100
11101011011
11000010
10010101100
111110110
111111100
1111111000111100
1111010010
1111100110111110
11101010011
1101001011
1111110100011010
1101001010
11111110100
1111000011
10111011
10110001001
1111110100010000
1111111100011000
1111101100100000
1111101101110100
1111011010010011
1111100101111101
1111100011011011
1111100111110011
1111101100110010
1111110100101011
1111101110111100
1111110010000100
10001101101
1100100111
1111110100110001
10101110000
1111011101
10010010010
1111110101100000
1111111100001011
1111111000110010
1111110001110010
1111111110001111
1111111101000100
1111001010
1111110010011010
10001100101
1001100100
1111111111010110
1111100111111001
1111011011100001
1111100000001110
1111100110000101
1111001011110001
1111010111011011
1111100111000010
1111110010010000
1111101111100111
1111110110101110
1111101000101001
1111111110011100
1101011
1101010100
100000110101
10000001010
1111110110011101
1111110010110110
1111101000100111
1111110101010000
1000111010
1010000110
1111111000110101
1010101100
1111110010110101
1111111111010101
1101110100
1111110101101100
1111110111000101
1111101100000111
1111100011110111
1111000111101111
1111001100001000
1111011100110111
1111111011011001
1111111010010001
1111101110010001
1111110110010101
1111111100011111
1111111110001011
1111110000001001
110001100101
100000010011
10011111010
1111101010111011
11011100
1111101011100001
1111101001000011
10000010110
101111100101
1111111110000001
1111110011101100
1111111011100100
1111101101011101
1111111100101010
1111111111101010
11001100001
101100101010
1101111011
111100010
1101000101
10000111011
11101101110
10100100001
10001101000
10111000010
1010101011
100100110111
11111010000
100111001111
1000101011100
1111101011000011
1111000110100010
100110110
1111111101010100
1111111011110000
10110010100
10110100011
11001111110
1111110000001101
1111101101010000
1111111111001000
1111111001111110
11001110101
101110011011
110010000001
101111111111
110110000110
1000110100101
110011001001
101101010110
11101011110
101001001000
1010100000001
101110100101
11111010010
11010111000
1001101000011
1000011001110
1111111000110001
1111001010010101
11110001
100
1010111
1010101011
100110000101
11110110001
10101000000
100100111
10100100101
1100101001
1111111000000000
1111111100000110
1111111001001111
1000100111
1001011011111
1000000111001
101100111111
11011111000
111100001111
1000100000100
1001001100100
110101011111
101010111
110110010
101010101011
1001000100001
1111101000111110
1111011101000110
101001000
1111111101110000
100110000
1111110101111100
10010000000
1000101110111
110000100111
1110111001
1010001000111
111101111111
110010011001
110101011111
100111010100
110001010100
1011000011011
1101101101000
1101110101110
10010010011101
1101011001110
10000101100010
1111011001001
1011011011111
100011001001
1110011001
1110111100
1111111111110110
1111111001101101
1111101101101000
1000100
101000000
1111111110000100
1111111101010101
11011100000
100000101001
1001110101000
1011101100101
1001110001100
1100101000
1001111011000
1001100111101
1001010010100
10001000111001
10001111001100
1100111011111
1100101101101
1111010110100
1101110010001
1101101110000
1100110101000
1010001011100
110000110110
100100101110
11011101111
1111011111101110
1111111101100001
1110100
1111111111011011
100000011
100011000
1111111111101001
1111111101100101
1111110101000001
1111110100101101
1111111010110011
111001
11110100100
100001111000
110011011110
1001001110110
111100000110
1000011001101
1010111111011
111011000110
111101011011
111000100110
101010010110
101101111101
101000011
1000001010
1101110101
1010001
1101001
1111111111001000
1111111100011110
1111111100111011
