1111111111011110
1111111100110000
100110100
100001010
101000101
10101110
111011
1111111111001100
100111
1111111110111010
10110001
1100000
1011010
111010010
1111111111010000
1111111111011000
1111111100000000
1111111111011011
1011011
1100010
1111111111010110
10001010
1111111010101110
1111101
1100
100101011
1111111111010110
101010101
10111101
1111111100000110
100001100
11000010
1111111101001011
1111111100010111
1111111
1100
1111101011110011
1111101010000111
1111101111001000
1111101101011001
1111101101000011
1111011001100011
100110000001
10000000000
1111011001001001
1111000000100001
1010101111
10000011111
101010001
10101111100
10001111000
101110100
100011101
1111111011000101
101000100
110111
1111111110011001
1110001
11011011
1111101010101010
1111101111000010
1111111101001001
1111100100000010
1111010001101101
1111001101001001
1111010010101101
1111010010101000
1111010111010000
1111000000100010
1111010100101101
1111111101010010
111111110
101110110
1111000111100001
1111101110011101
1111010110101010
1111110011101010
1111000101110110
1111111100001001
1111101111101100
1111011000010001
1111100000010111
1001100
11010011
10110110
11110011
11011111110
10110111001
1111101010001110
1111011101001110
1111110111000101
11110011100
1111011010010001
1111100001110011
1110111111000100
1111000000111110
1111001111010101
1110101101000101
1110101100011101
1111000110000110
1111001100110100
1110111001111100
1111011100010110
1111100110000010
1111010100001110
1111011111000011
1111111111000010
1111110110110001
1111010010010110
11100101
100001111
10110
11011110
1111111101101110
11110110000
10001000000
111010001
1111011001100011
1111101111011111
11
10010111100
1111110111011100
1111110101010011
1111111010101000
1111100110010010
1111100111000110
1111110011001110
1111101000101111
1111100011010100
1111011111110010
1111011101111111
1111110010100010
1111110011100111
1111011010000000
1111011110100011
10001010010
1111101111100001
1111100100101001
1111010001011100
1111011110010010
1111111110101011
1010010
100011110001
11010110101
110000001000
1111110111100010
1111111000001000
1111111110001000
1111100010011110
1111100011001000
1111011001111010
1111101010110100
1111010100000011
1111000110111001
1111100010010101
11011010
1111101011011101
1111100011011000
1111100001101001
1111101000101010
1111111000010100
1111101111011011
1111111000110101
1111111110101000
10011011111
1111110110110100
1111110101001101
1111101100111011
1000011
1111101111110110
1111100100011001
1100000101
100111110010
1111000000110010
1111010011111100
1111010000100001
1111010000111011
1111011001100100
1111011100000110
100011110
1111011110001101
1111010100011011
1111110010001101
1111101101110001
1111011111101000
1111110100111000
1111111100000010
10000101110
1010011
1111110010000101
1111110010000111
11010001011
10001010001
1111110100010001
1110101101
10110011011
1110011
1111010101111011
1111100011000101
100000001
1001101110
1111100110110101
1111001110010011
1111001011100111
1111010011001010
1111101001000000
1111101011100010
1111100111111101
10010101
1010110111
11101011101
1111101100000110
1111100110001010
1111101100010011
1111100100100001
1111110101000111
1111101101010100
1111111000010011
1111100111101001
10110000110
1111110111111011
1111110100101111
1001010001
11110110010
1000111101
1111010111000001
1111011010011100
110100101
100010001
1000110101
100000100
1111101000100111
1111011001111100
1111101100111000
100100101
1111010001000000
1111100111100011
10001010000
101001101111
100111101
1111011101011001
1000100
1111100110001111
100110
1111111000111101
1111110001101000
1111101111111101
111011101
1111110110001001
111011010
1111101011010101
100100
1111101111010101
1111100101001101
1111100010010110
1111000010111001
1110110010100001
1111110011001000
1111100101010000
1111011001100101
1111011001100001
1111101000110100
1111101011000011
1111010011100100
1111100011001001
101011110011
1000000111011
100100110001
1100001010
1111111101100001
11001101
1011011011
110110110
100110110
111111010
1111110010001110
1110000111
110111
1111111000110110
11011101011
1111110001100100
11100101
1111000001001000
1111010101100111
1111101111110010
1111111100001101
1111001100011110
1001000110
1111100110100111
1111011111100100
1111110110011110
1111101011000101
1111111111011111
101000111101
1000100011111
1000001010100
1101000000
1111101110001011
1111110011111000
1111111101101010
1111111000011111
1101111
0
10110010
111011110011
110111000010
11011101110
1000010001
1111111000000001
1111111100111110
1111111110110010
1100111010
10111010001
11111110101
1111111011111110
1000010110
110110001
1110101111
110111100
1111110010011100
101011110
110010000010
101011101111
101011011010
101111101
1111100101110101
1111100000010011
1111001110111011
1111011111111100
100000101
10010010001
1101110100
100010101100
10110111110
1101111111
10110010100
1111111011111011
1111010101100001
10010000000
1111110101001010
1011011011
1111011011101111
1111101001100111
1111111111011100
10010001010
1111111100000011
1111101001000011
11000111
11110110110
110111001111
110001110111
100111101111
1010111101
110111001
1111100101111100
1111000110100101
1111011101101101
1111100100011010
1111101010110101
1111001100101100
1111110101110010
110000100
100100100101
11100001101
1111111111110110
1111010001101111
100011101111
1100011101
1111100101010011
1111101110101100
1111011101111110
1111110001101001
1111111111001001
1111110110010101
1111111011101001
100000111001
101001010111
100010010100
100111000100
10101001011
10100001100
10110010110
1111010011101001
1111001101001110
1111010101100000
1110101010110111
1111000000001001
1110010011011011
1110110101000101
1111110010011101
1111101111110100
1111010011010111
11011000110
1111100011011000
100000000100
11111110000
1010011001
1111111100101001
1111101010010110
1111110011001001
1111111110010100
1111110111000000
1100111101
1001011011
1110111100
11100101000
10011111011
1111100100
10010100010
1101101111
1111101001011100
1111100101100000
1111011011011101
1111010101101010
101100110
1111100001111111
110101000
101011000111
110001101
1111100111110011
11000001011
1111110111001010
11010100101
110010
111001
1111111111111001
1111110010111011
1111101011
1111111010011100
1111111000101001
1111111111111001
100110001
1111001010
10111010000
1011000011
1111110110111100
10111000
1111101100100000
1111110110111101
1111010001110110
1111000100001011
1111010101110101
1111110111100111
1111001011111000
1111001001110101
10100100010
1111101100110101
1111011101000101
1111111000101011
1111101010011001
10010011010
1111101010011110
111110000
100000000011
1011100
1111100101000100
1111010100100100
1111001111001011
1111101110001111
1111110010001010
1111101111111110
10110001111
1010101011
1111110111010100
1111111100010101
1111011110010010
1111010110100011
1111001101010001
1111100001110011
1111100000111010
1111001100000100
1110111011011011
1111101101011100
1111010010011001
1111100001011100
1111001101000000
1111111111011111
1101110111
1111011011111001
1111101001010101
1010011100
101011000110
1111111011101110
1111101010111000
1111100111010101
1111011101110000
1111111100101010
1111110110011001
1111111110001111
100001111110
10101111000
1111101011000111
1111101110001000
1111100100100001
1111100011100100
1111110001011110
1101100101
1111011110111110
1111100000001111
1111101101100010
1111110111100110
1111111010101011
10101001111
1111010111111100
1111011000010001
1111111000110001
1111011110011011
1111010101010100
1111111001000101
1111111110111100
1111101100010111
10011
101111010
111101
111011001
10010110000
11011001100
100111000010
10001001111
1111110011000010
1111011011111111
1111110010100001
1111100110100100
1111111101001110
1111111010010110
101001011
1111110010001101
1111110100100000
1111011110101100
1100101111
100001010100
10100100101
11011100001
1111110010001101
1011111011
1111001100011010
1111100110100110
101111111
1111110011000111
10111010111
1111101111001011
1111111100111101
1111101000111000
11111
1011001001
10001000010
1111111110001000
111100110
1111111100110110
1111100110101001
1111101011010100
1111110100110010
1111111010111111
1111110011100000
1111101001110011
1111100010010100
1111111010111100
10000100010
1111111111100010
11111001110
1111111011111000
101001111
10100101100
1111000111110110
101111
10010010010
1101101011
1111111010001001
1100111101
1111111100000001
1111100010001010
1111111101110111
101001
1111110101000010
10110010000
10010001010
1000101010
1111111001110110
1111110101001111
1111111100110010
10001111011
1111011001110101
1111100100110000
1111111011000010
1101011101
1000000001
1111111010110110
100100110011
10010110010
101110010
1001010001
1111011111111101
1111100010001111
110010010
1111111011011100
1111101011110101
1111111010001001
1111111110111001
1111111000101100
1111110010000010
1111100100000110
1111110011100100
1001111111
1111111010110110
1111100000000011
1111110000100000
110000000
1111111100101110
1111101110011111
1111100011001111
1111111011101000
1010010100
100000111000
110100
1111111000010001
100111001
10001110110
10100111111
1000011
1111010110101110
1111110110111101
1111111101111010
10010100
11001011
10001110
11110011
1111100101010110
1111011110010010
1111110001101000
1111110101010001
1111111000110011
1111011101010101
1111011111110101
1111111011100100
101011001
10000100110
111010100
1111110111000000
1111101110000011
110010000
1111000001
1111110110100110
100101110010
1111111011011001
1101000
11000110
1111111111001101
1111001111001111
1111110000100111
1111111010111001
110010000
10111101100
10100100001
11000001111
1111110000101001
1111111010011010
10011001011
1111111100100111
1111100100110101
1111100110010100
1111111010011111
10100011100
100011010111
1111111110100010
1111001101
1111110111101111
1111101011010110
1111111000110011
1111111111101010
1111111110000100
110011000110
1111111010101110
1111111011111010
110
1111111110000000
1111100011000110
1110111011010100
1111011101011110
1111111011000001
101100011
1111110101110110
1111111010001111
1111101110011001
1111101101001000
1111101001111101
1111100011111110
1111100100011001
1111101100111000
1111000011011111
1111111100001011
1011101100
10000010
1100100111
1111111101110100
1111110010100100
101111101000
100100111101
0
11100010001
1011011
100001011
1111111101100100
1111111101100010
100000110011
1111111001000100
1111101100111011
1111101011001011
1111111001001110
1111111001011110
1111010001110110
1110100100101001
1110110111011110
1111100010110010
1111100000000110
1111101011101001
1111010101100110
1110111011010110
1111001001001110
1111100110011010
1111000110111011
1111011010110000
1111111111000110
10011101011
11100000010
10100011000
1111101011111111
1111100000100111
101001
110111
10010110
111000
1111100011100011
1111111000100000
1111101010010100
1110110010110001
1110000110100101
1111001001011101
1111000101110011
1110101111000110
1110101001100101
1110110100001110
1110100111101110
1110100000001110
1111100010100111
1110101001100010
1111000011011101
1110111011000010
1111101001010110
1111010100011011
1111011101100100
1111100100011110
1111110010100111
1000101
111101000
1101011
100110100
101001111
1011110
1111111011011011
1111111100001111
1111110111001000
1111110011011010
1111111010100000
1111111011001101
1111011111110110
1111010001010101
1111011110001011
1111001011001101
1111010011011010
1111010101001100
1111000000011010
1111111100001111
1111110111110101
1111011011111000
1111011100110110
11110010101
101111111001
11110010101
1111110111101101
10110000101
1111111111111111
11111001
1100000
100001111
