1111111101001100
1100000
1111111101101010
1111111111110100
100111111
1111111111100011
1111111111100101
10101010
1111111110101111
1111111100101001
1111111100001111
1100
1111110011111001
1111111011011010
1000111110
10101010
1110000
1111111011111100
1111111011011101
10010000
1111111110010101
1111111100100111
10001
1110101
1111111011010110
1111111101001000
1111111011010011
100111
1111111100110000
1001111
11010111
100110111
100101
100111110
10000000
1111110000001110
1111001010000101
1110100011000011
1110100100010001
1110010000000111
1110000100001000
1110111011001001
1111101011110101
1100010111
11100001010
101110101
1111100100001000
1111110000111010
1000000000010
100110000001
1000101010
1111111010111101
100011
10010
11100111
1111111110110111
1111111110110100
101011110
110011001
10111001010
10101000010
1111111101110111
1110010000
1111101101111001
1111100111100100
1001011000
10101000100
101100
11100111111
100111001010
10010111011
10001000110
11110110110
100111001101
1000010000111
10101101100
11101111101
111101100
11001000000
1001100100011
101010110111
1111000110
101011011
11011100
100000010
1111111110001011
10000100011
11100110101
10101010010
1111111101100001
101
1111110010000010
111111
1111110010011100
1111110011001100
1111010010111001
1010011001
10001111100
10100011010
110011001101
1100010101
11111111
1101101011
1111111010111110
1010011
10011010000
1111111101010110
1111110101011000
1111111011101110
1111111000011011
11111001110
10011110
0
11
11011001011
10111010
10111010111
10100001011
101001000
1111100101001001
101111111111
101100101000
100111011000
110010110110
1111111111
1011101011
10110100101
10110000000
1111111110111000
100
1111110001101110
1111011000010111
1111110010001101
1111100101001111
1111101010000001
1111010010010000
1111110110010101
11111010
1001011100110
11000000110
10011
1111111110000101
100101010011
100000011000
101101110100
1110100001
111001000
101001111001
110110101111
100101001011
1111111100111010
10000011
10110001011
1111111101010100
100001000
1000100111
101001010111
111100110
1111110101100001
1111111100000110
1111001010
1011110010
1111111111000000
1111101110011101
1111101111010111
1111101100
1000111010101
10001111011
1111111100011010
1001111011
1111100100001001
10111000000
1111111111110000
1111110111101100
11000001
1110110101
11010101010
10100001110
1111111010000010
1111111
1111101001
10111111101
10010011101
10111001111
10010001010
1010010100
1111111100110110
101101010
1101110011
10000011111
1111111011001010
1111110001101000
100000011
11110111110
101011100111
101111000010
11110001
100111110001
1111100110100101
1111111110111010
111011101
100000010000
11011010000
1111111111111101
1101100010
101010111
1111101100101100
1111101001101101
10001100010
101100001
110100010
1111111111111110
1111111111011001
1111111000111111
1111101100001101
1010000010
1110110011
1100011001
110010100
1111110011111001
1111111011011100
101101111010
1111111111010101
11000100101
1111101100000101
11001100111
1111000011101010
1111111100010000
111011100
1011100111
10000110011
110001000
1110000
1111110100000011
1111111000101111
1111111100111011
10111011110
100101100100
10110010
1111110010010011
10101010
1111110111110000
1111111110101101
100001010101
10010001001
1111100100100011
10001110000
1110111111
10000110000
10100
1010000001
11110111010
1110010110
1111100101001111
100111101
11101100010
11111011110
1100001010
10010101011
1111110100011100
1111101111010100
1111110011011101
1111110000110000
101110101
11001011010
100000101001
10001111011
1110101
1110100100
100101010
1111111111100011
10011010110
10011110111
10100010101
10111111111
10101111010
1001010101
101100010011
11100100100
1111100011101100
11000010001
1111011010000000
1110101110
1010111001
1111110010001100
1111111110000101
110010000
1111101111000010
101101
1111011101111000
1111100010001000
1111111001011010
1010100101
110011111000
101100111000
10011110
10000000101
1111110111010100
1111110010000100
11000011
10010101110
1011111111
10010010000
10100001000
1111101010111100
10100100101
110011100011
1010010100
1111111100110110
1111111110000101
1111001000001000
100110000101
11100100101
1001111111
10111111101
1111101000011110
1111101101100011
1111011000111000
1111001001011110
1111101110111101
11000111
11001111000
100011111000
1101100001
1111110010000100
1111100100110001
1111011001110100
1111011001110001
1111101110100110
1111100010001100
1111110000111001
1111100110010010
1111100101110000
101101001011
110010110000
11101011011
1111111010100100
1111011100000100
1111101011011001
1011110011
1010100001
1111110011100000
1111111000011110
1111111111011111
1111100001000100
1111100101010101
1111101010001001
1111100000111111
1111101000011011
1110110000
111100011010
10000101110
1111101001111101
1111011110111011
1111010000111000
1111001111001100
1111101001111001
1111110100111111
1111001011011011
1111010001011001
1111110100101011
100011100100
1000000111010
101001000001
100000101
1111100001001100
10100100
101000001010
1111010110001101
1111100010000111
1111110011100011
1111011001010111
1111101010110000
1111011110111101
1111001101001110
1111010110011100
1111110000110010
11110100011
110010111010
11010001011
1111111101001101
1111100001101111
1111011111110110
1111110101101010
1111110100011100
1111101011110100
1111011011010100
1111011111101001
1111100000000000
100010101110
100111100100
101100110111
1111101100001101
1111110100100100
1111001111011000
11100
1111101010101000
1111101000111110
1111101111110010
1111100101011100
1111111010001010
1111000111001110
1111010010010110
1111100110011011
1111111100100011
10110110110
1000001100101
111100111010
1010101111
1111011101001100
1111011100111100
1010111011
1111110101011001
1111110000011100
1111101001111011
1111100111110001
1111111111111110
10111000011
1010110100100
11011100000
1111101001000000
1111111110101111
1111100001101011
10111
10
100010011
1111100101001000
1111101100001001
1111111010110111
1111101111101001
1111110000000000
1111101100100001
10001111001
110110010110
1011111000100
1000000100001
1000010010
1111110001011100
1111110101001110
101
1111110
1111111010101110
1111010111101000
1111101010110001
11100010010
1101111100
110101010101
1011001
1101011
11010110001
1111110101001100
11010110111
1111101100000101
1111110010000010
1111100011100010
1111101111001000
1111100001101011
110111101
101010111
1111110001110001
11110011011
1000110111010
1001010100100
101010000110
11001011
1111110011110100
1111110000011111
1111101101111000
1011100010
1100010010
1011100
1000110110
101001000001
101100010011
1010110111100
1111110101000000
110011
100010011101
1111110010101100
1010100
1111110101111001
1111110011001000
1111110000111001
1111110111001010
1111111101110110
1111111010011000
1111011001000111
1111111001101111
11101011001
110001010010
101111011110
11111011010
1111110011110110
1111110000001100
1111101000101100
100011100
111111100
11011110
111
1111110111000000
1010010101
10001111001
1001110110
1000000110
110011001
101000010010
1111101001101000
1111100010
1111101100000011
1111111100100110
1111110101010110
111010001
110101
1111110101011110
1111100101010011
1111111111100100
100111101000
101100000001
10110000100
1011010011
1111100111010000
1111101101101111
1111110101101011
10110011
1100101000
1001100101
1111110011111001
1001010011
10101110100
1101110010
1111111011111100
11000001010
101111011
1111111111001000
1111111100101010
1111111010110011
1111111100001110
1111110001010100
1111110011011110
1001010010
111111001
1010010111
10011100010
1000111001
10111011111
11100000010
101100111
101110000
1111110010011001
10110001
1111111001111100
1111111001001011
1111110110110011
11101111101
111111000
1001011110
11001101010
100100111010
100111111001
1010101001
101001101
1111100110100101
1111100011011111
10000111110
1111111001010101
1111110101100001
1111111111001110
101111010
1011100111
111111110
11010000001
1010111010
1111010
101010010
1101000101
10110011
1111110111110111
1111111010010011
110011110
1111111110011111
11110011010
1111101101
110001100
100111111111
10101110101
1111111100011000
100011101110
10001110101
1111111001100011
11110011110
1111110000111011
1111111001100011
1111110110010000
1111010111111011
1100000
10010100110
10100100010
1111001
1000001101
1010101
1111110110000000
101011111
101000100
1111111101010101
1111110101010110
1010100100
11010110001
11010101000
10000000011
11100111
1111110111110110
111101111001
1111111111101101
11100111010
10101111101
1111111011011001
1111111111101000
10010011
1111110110101000
1111100000000001
101111010
1010000
1000101000
1001101001
10110000100
101011010
1111110011011000
101000110
1001100
1111111000111100
1111101110010010
1111101010001001
1111101001110000
1111111100000100
1111111101110010
100111000
10101001011
1111101000
10000010001
101000000101
1110100001
1100000010
1001001001
1111111001011010
1111111111100011
1111111111000110
1111100110
10010100100
101111111
1111111011011000
10100001
1011111000
1101111001
10110001
1111110101001000
10001001000
1111111111001001
1111111010000001
1111101101110000
1111101101100101
1111110011000010
1111110000001100
100000111
11100000
11001100000
1011101001
10111011101
110110001101
11011110011
10101000000
100010000110
101001110
11110100
100101001
1111111100010000
100110011000
11011001
1111110011001110
100100010110
1010011000
1100111
1111111011000111
1111111100010011
1100000010
110001111
10111000011
11001011010
1111111110111001
1111110001110111
1111101111110010
1111100100111001
1111111011000011
1100000011
111011100
101111011
1111110010001110
11111011010
1111111111010100
1110000111
1111111110101110
1101000
1111111110011010
1111111110110100
1111111001100110
1111110101010110
110000111110
101000100011
1000001111111
1110010100
1010110110
1111111100011101
1011100101
110110111101
11110011101
10111100111
1000110101
1111111011101010
1111110001111111
1111110010000010
1110110110
1111101001100001
1111100011101000
1111101110111011
1000111011
101010000010
1111110011011100
10001010010
1111111110111111
10110100
100011100
110111
1111110100000001
1111000000101010
1111111110110101
1111100100100011
1111010110001111
1111011010100010
1111011000010001
101
101110111
110111100
1111110111010000
1111001100110001
1111001110111001
1111100111011010
1111111100000011
1111111101011100
1111111101111010
1111101110100011
1111001010000001
1111001001010101
1111010011011101
1111101101101010
11010000
100110010
10000111
10011100
1111111011010110
1111111111110010
1111111101010010
10001000100
10011101101
1111101100100100
101000
1111101100110101
1111100000110101
1111011100011110
1111010100011100
1111001111110111
1111001111101111
1111101110101011
1111001000001000
1110100111000111
1111000000100010
1111100001010111
1110101011011001
1110110000011110
1110111011000011
1111011111011101
1111111101000001
1100110
10110
1111111100101110
1111111101011010
