1101101
100010011000
1111100000001101
1111111111001101
1111001011101101
110110111110
100101000100
1111101000110110
111100010010
1111000111000001
1111100011100100
1111010111110000
1111100111111011
10100010011
1110111010001101
1111111100010101
1111111010001101
1110010100011011
1111000001001111
1111101001111001
1111110001100010
1111010110011110
1110111000110100
1111111111100101
101100100011
1111000111110111
11101100101
1110110100010100
10101000000
111000010010
