10001011
10111
1111111010110010
1111111011111110
1111111011011111
1111111111110110
11111
1000111
100110001
100010001
1111111110001100
11011100
1011110
1111111101101000
1101101
1111111101000100
1001110
1111111011111111
1111111011101101
1111111100010001
1111111011000111
111010
100000101
1111111100100101
101001
11001101
1101011
10011
1111111101101100
1001000
1111111011110111
1111111011101100
111110100
100101101
110101111
11110011
1111110011000100
1111101011111111
1000001001
1111101100110110
1111110010111101
1111101000101001
1111110100010001
1111010111101100
1111100111101110
1111110010000001
1111111111101001
1111001010
100100111100
10011100100
10010111111
10111110000
110011
1111111110110101
11010000
11111
101010101
1111111101101011
1001010010
1111110100001001
1111101101110010
110010011
1111110101001011
10100101101
110111011101
1010011101101
101111101111
1001100111
11100011001
1111111100111000
111000011
11111101
1111110101111101
1010101001
1111101000100101
1111111110110001
1111110001111001
110101000011
101001001
1100100111
101101010011
1111111010100010
100000010
111
101000011
101010
1111111100000101
1111110011101001
1111101001000101
11001000111
10000111001
1111101011011101
1111110000111111
101100000
1111110111000101
1011000
1111100001100000
1111001110010110
1111001011111001
1111011101110110
1111101111001010
1111110100110011
1111100100010100
1111110011001101
1111111100100011
1111101110001011
1111111010011110
1010001
1111111010000111
10001101000
100101000
11011111
1111111100001101
101101111
1111101011101111
1111101111000100
1111110100101110
11100
1001010101
1111110101111010
101100
1011000111
1101111011
1111111010010101
1111101100110101
1111101001000001
1111100001100101
1111011011101111
1111110111001101
1111011010
1011100101
1111110011101011
10101100
1111101000000101
1111101100111000
1111100110000100
1111110100010100
1111111101111100
10110001011
100100000101
1111111010110100
1111111100010011
1010101011
1000110011
1110101110
1111101111000001
1111111011101010
1010111111
1111111101100110
1111101110111001
1111111100011001
1111101000111011
1111100110100000
1111110010011110
11110011
100111100
1111111101000110
111111111
10010001011
1111110010110011
1111110100011000
1111101010011000
1111100011011011
1111111110010011
1111111111001100
11011011000
111010111
11101010011
100010010
1111111000111101
1111111001000101
10010000001
111100010
1111101110010100
1111111000101010
1111110101001000
1111101110010110
1111101100110011
1111100111000111
1111100000111100
1111100000100001
1111100110001110
1111110111111100
1111111111010111
1111101100111000
1111100100010010
1111100001001001
1111010000100111
1111100110010110
1111010011001100
1111101010001100
1111111011100110
1111011111001100
1111111011110100
10000000111
10101001100
1111111100101100
101011010
1000000000
1111110111000101
1111111111111001
1111101011010000
1111100011111111
1111100010111110
1111100100101010
1111011110110110
1111100001001101
1111110110011111
1111011111010111
1111101001011010
1111111101010100
1000110
1111100110100011
1111101110100001
1111011000111110
1111100110101101
1111111001000001
1111110111111100
1111101111101100
1111110001011110
1111111011100101
1111111101100011
100110011001
10011110110
1111111001000111
100000010000
1111111101110100
1111100111000000
1111001000000000
1111011011110001
1111100110100111
1111100110010110
1111100101100001
1111111010000000
1111111101
1111110010001011
1111110001011111
11111
101011100
101110111
1111110100001001
1111100011101100
1111100111110110
1111111011001011
1111001
1111111010100010
1111100010000111
1111110100101000
1111110100000111
1101000100
11111100
1111111001011111
100100001
1111111110000100
1111111011110011
1111101100001101
1111111000001000
1111110000110001
1111011011000100
1111110010011010
1111101111000100
1111110111111001
1111110111100010
1111101110110110
1111110111101000
1111110111101000
1111111010001011
1111110111000010
1111110000101101
1111110011100100
1111110001100001
1111110010010000
1111111100100110
1111101011111101
1111011011111111
1111101001110110
1111010011010010
1111101101011111
1111111001000001
1111110100111000
110
1111100100000000
100000110010
110100001
111011101
1111111110101011
1111101011111111
1111101010000101
1111101011010011
1111110110011110
1111101100100010
1111101101111001
1111110101000001
1111101100010110
1111011110001110
1111001111011011
1111100011110110
11000110111
11011001
1111110101000000
1111110001101011
1111101011110010
11000111
1111011010110001
1111011011010100
1111111110101101
1011100111
101000000101
1111111100011101
1111110111101010
1111110111110000
1111111100001100
1111110
1111110010100001
1111100101010000
1111100111000111
1111111000001000
1111110110100101
1111111010001001
1111011111111010
1111111010101101
1111100011010110
1111010111001111
1110110111110110
1111101001000100
110010010
1111111010110010
110000101
1111101111110010
1111011
1111101010111011
1111110111011011
1111111010001110
1110110101
1111010110110010
1111100011010010
100001
1111111101010111
1111101101000000
11100010111
1111110110101010
1111111001001100
1111100011110001
1111110001101100
1111111000001100
1111111001001111
101110
10011101
1110110011
1111111010110101
1111010010110010
1110111110101000
1111100010110010
11011
1111111101011110
111110001
1111110110100011
1111111001110111
1111101001010100
1111011000001100
11110001
11001101101
1111101110101111
1111100011100110
1110110
1111110101010111
1111101000111111
1111101111001110
1111110101111001
100000110
1111111110001011
1111111000001001
1111110011111010
1111111000110001
1111101010100000
1111110101101000
100110111
1111111010001001
1111010111011011
1111100010011010
1010100101
1110111110
1000001111
11100001
1111101011110101
1111011000101101
1111110100010111
1101001111
110111011011
100011001011
10011011111
11001110010
1111100101011111
110010001
1111101011111101
1111111001101110
1011000011
10100110110
1111101111101101
10000111000
100010010
1111111111001000
1111111111100000
101110011
1110010100
1111101111110001
1111100110110000
1111110110110010
11011000000
11011011110
1001010110
1111101110000110
1111101010000100
1111011000100110
10010001000
100000001010
100111001011
111000010001
11111001111
100110010100
1111110110101011
100010111
1111111101110000
110100110
111101011
1110100010
1111101011001011
1111111011111110
1111111110010111
10001110
10111111001
110000001101
10010110111
101110011
1111001
110101100
10010010111
11110011111
1111101010001011
1111110110111000
1111111111000011
101
10111010010
111110101
11010010011
1111111110011010
101010100000
11000000010
101011011
1111101101000000
11010000011
1111101100010111
10001011010
10011010001
1111111000101011
1010010
1111110111011111
101111000
100001110010
1000010001101
101001000100
10000100100
1111100000
11101111000
101111111110
100100100111
10000000100
1111111100110010
1111111010000010
11000011100
11100101110
10010000110
11001000010
10000110101
1100001100110
101001010110
1111111011010010
1111011101110110
11000101001
1111100100111100
1110000100
1010111101
11101011
1111110011101110
1111111010100000
1111110011000100
1011110111
100000100000
11010111111
10100101101
111101111
11010011011
10110001111
10011101111
11110000010
10010110111
11101111111
111101111000
110111011010
101101011
10101010
100000100001
1111110100100010
10110010010
1111110100110111
1111101010011110
1111111101000000
1111110010110100
1010111101
1111111001001100
100111001
1111110111111101
1111111001000011
1111110010100001
1111110110000001
1111111101110001
11001000111
1101011101
101011100
11101110111
10110001110
1011001000
100011110010
10010100111
10100100010
101001110001
101001110000
1111011101
11100010001
1100101101
1111110111101010
11000000001
1111110001100100
1111101000101111
1111100001111101
1111110011111110
11001111001
1111111111100100
1111111110010110
1111111101001001
1111110001110100
1001111101
110100001
1100011000
1000001111
111101000
101110
10001111011
100001111110
101000000000
11101111111
11010011000
1000010110
10000011111
100001100011
11001111000
1111111000000001
1111111011111110
1011100110010
100000001010
1000111
1111110010001101
1111110110011001
1101010000
1101111
1111110110001100
10000111100
1111111011111101
100011101
1111111001010000
1110011000
1001110110
110110101
1111111001011001
1111110111101011
1111111101010001
111111111
100010000001
101000000101
100100101110
10000010000
110010000
110011001
1101011110
10110010100
10001101100
111001101100
1111101011110011
1001011
10000010110
1111111110101110
111010010
10110011010
110100011
101010001
1111111000110101
1111111011110010
1111111000100100
1100
1110010
1100111101
100011
1111101000011110
1111110110101011
1111101101100010
1111101110111111
100001110
10100100010
110111
1110011101
10110010100
101011111100
10010000011
11111000
1010101101
110
11100110
11001001
10001101011
1101110110
100110111101
1111110110000011
1110010001
1111111001000011
1111111011101100
1111111111111001
10000000110
11000
1111101111010111
1111100100010010
1111011010110101
1111100000110001
1111010000101100
1111000100011011
1111101011000000
100011
1111111110001000
10111000
10010101111
111110001
100010010101
1111101110101000
10110010
1111110110111111
1111111110010101
1110
1111011100110101
1111111110000010
1111111001010000
1111111111001111
1111111001010000
1111110011101110
1110111
1100111010
1101011101
10011011001
1111011100111011
1111001110100101
1111000001001001
1111001011111111
1111000011011110
1111010110000101
1111111001010010
1111111110101111
101110
1111111001
1011001101
1111110000000011
10010011
1000111100
1111110110
11011011
1111111010101111
10000110
1111101100101010
1111111010101011
1111110001111001
1111100000010010
1111101000010101
1111111111000111
1111000100
1010100000
1010000011
1110101010
1111010110101000
1111011101011101
1110110000101111
1111000010011101
1110111111100000
1110111001110001
1111010100100010
1110111111011111
1111010100101001
1111110010011100
10010000100
1111111011100010
1111110011001011
101100110000
101101101010
1000111
1111111110010010
1111111100101101
100001
100001010011
10110111010
1111111001111111
11001111101
10001011011
1111011000001100
1110111110001011
1111010010100110
1111101000001010
1111001001011001
1110111100100011
1110011101011111
1110110100101010
1110100101010111
1110100100110011
1110111000101111
1101111110011011
1110111000001110
1111001010110001
1111011111110100
1111001101100001
1110111010001110
11001011001
10111101100
110101
1111111110010101
100000110
10010
11111001
10111110110
1011101100
1000001100
1111011100000110
1111000010100100
1111000111000010
1110101010000100
1110101011101011
1111001110110110
1110111100101101
1110011010010101
1111010011110000
1110110111100100
1101110101000000
1110001001100110
1110111011011010
1111011001010110
1111100001001000
1111010011001100
1111111000001111
100001111110
1111110010101001
100111000
111011
1111111101011011
1111111110011111
11100111
1111111110000000
10010010
1111111000001111
1111011110110011
1111100110001100
1111100000000011
1111011110011001
1111010001010000
1111000101010011
1111001100000101
1110111110100100
1110101110010000
1111000110001001
1111101000001000
1110111111011010
1111000111101111
1111010000110000
1011000100
1111111100000110
1111100110110010
1111111111001110
1100011
1111111111001110
0
10111111
