1111111001101011
1111011001110100
1111010001101010
1100111000
1111011101100011
10001010101
100111110111
1001011100101
1111011010001010
1111001000110001
101
1100110101
1111101001000010
1111011000101100
1111111111000110
101010000010
1110001010
1111000011101000
1000111001010
1111011001010000
1101010000011101
10000101001
1100011000000
1111101101100100
1111000100011111
100000111
11001110110
1111000101010100
1010000111100
1111011101010011
