1111110110001101
1111010000100010
11000
1111110011101001
1111110111010101
1111110110100111
101001011101
100011000111
1111100111011010
101110111111
1111101100011100
1111011101011000
1111100011101
1111101100110101
1010000111101
10010001010111
1111001101101100
1110101000001
110000101000
11110100
1011101101
101110000011
1111100100111
1111110000000011
11000011100
1010001100010
1100000
1011100001
1111100101001100
1110110001110101
