10110101
1111111110011100
101010001
1111111110110000
1100
1111111101111011
1111111110100101
11111101
100111000
1110011
100101111
100110000
11110111
1001000011
1111111110111101
100000111
10001
1111111100000110
1110101
1111111111100000
10100
100011110
1111111111000101
1111111110010111
100101001
1000000
1111111101111101
1011
1111001
100110001
1111111111010101
101000100
1100100100
100001101
1110100111
1000111110
1011000
1111111000011101
1111101110
1111110100010001
1111110110011001
1111110000011001
11000100100
111001100
1111001111000111
1111011110111110
110001100001
110111011100
101110100001
1000001010110
101011100110
100011001100
1111111011011011
11100111
1111111010111010
100100011
1111111100010011
1111111011100011
100001000
1111101100110000
1111110001100110
1111110000011010
1111100111110110
1111011011100100
1111010011101011
1111100001000100
1111010101011010
1111001001111100
1110111111101100
1111001111100100
1111011001100001
10111000010
100110010010
100001011000
101011100010
111110100000
11111000100
101101011011
100011010001
1110010
1111100000111100
1111110100110101
101011001
100000111
1111111110000111
1011010
1111111000111011
1111111110101001
1111100101010101
1111111001101010
11101110111
11010010000
1111001101010111
1111001001100000
1110110001001100
1110110100000110
1110101111111001
1110111100111000
1111011101000100
1111101110101010
1111011011100100
1111101111001010
1010111001
1001011110
1111111011000101
111111
101111101010
101101111111
101011100
1111011111010000
1111111110100111
11111110
1111111111100011
1111111101000110
1111110110001111
1100110010
1111101011101011
1111110111101111
1111101010000110
1111001000011110
1111000111101111
1111011100000101
1111001110010010
1111010110000100
1111100001001001
1111011101110100
1111101110011101
1111100001110001
1111100001100100
1111101101111011
1000111111
1011010100
10001001000
101000101111
11000010011
11011101001
111110101110
100001
1111111001011001
10011111010
100100001
1101010
100001101111
1111101110111010
10010
1001011111
1111101011101010
1111101111100010
1111110011001010
1111011000011100
1111100010111100
11110101
1011110001
1100010010
1000111000
1110
1111110010110101
1111111111010000
1111110001011111
1111110110010000
1011100
1011101100
1010011001
1111101011011110
10000101101
1111110000010011
101111000011
11011000000
11001110
1111110000110111
10010010010
1111110111010100
1011001111
10100101011
1111101111100100
1111101101010010
1111101101011110
1111001101111101
1111010000110010
101001101
111000001
10010000001
10111010010
10000010110
1111010
1111111001010111
1111111010100110
1111111101011000
11010111
10001100
1111110101010000
1111111101101100
1101111111
101111111011
1111111001011011
1010011010
10100010
1111011001100010
100100
1111010101101101
1111111010000011
1111110111110000
1111101100110111
1111100101100100
1110111001011010
1111100001001011
1111111110000000
1111010100
10101110100
10011011111
10101111
1111111011000011
1111111010111000
1111111011011010
1111111001000010
1111110100110001
1111110101100110
1111101010111000
100110100
10100100011
1111110000001111
11001110110
100011000001
1011000101
111100101
1110111000110001
1111010110011111
1111101111100100
1110111111100111
1111011111101100
1110010
1111111001110010
1111010011001100
1111100111011101
1101101001
100010110010
101011110111
100011101100
11
1111110010100110
1111101000000011
1111100111111010
1111110111100111
1100001
1111111110000011
1010011010
111110101
1101101000
10001110001
100001001101
110100111001
1111111011010100
1111100010001000
1111011101111011
1111110000101010
1111100011111110
1111000110001101
1111101000011000
1111100001000101
1111010111001111
1111010000010111
1111101000111101
1111111101111010
100111111110
110010111101
101001111111
11000010111
1111111111010010
1111101101000100
1111011000001111
1111101010101001
1100101
100001001
11001000100
1111111110101100
1111111010110111
1000101101110
101101111110
11011101101
1111110011001001
1111100111001111
1111110010110010
1111011001100110
101000011
1110111110
1110111100011000
1101110111100001
1110011010011111
1111010100110000
1111010010110110
1111111000011111
10111110100
1000001101001
101110000001
101010100000
10100010111
1111110101011010
1111110010001100
1111111011001110
1010000
10010100100
1001100100
10100010111
11111001001
100010110010
1111110000100110
1111111110111010
1111111100011011
1111101101101101
1111111000010001
11011011111
1111001101111000
1111111011000001
1111101001001011
1111010011000100
1110110111101010
1111010111110010
1111100010110010
1111110101100111
1000101101
11101011001
101011111101
100001011101
111000111
110000010
1111100
1000111010
110111
1111101110011100
1111110000010101
1100110111
1111011100111111
1111111111100010
1111110100010111
11000000101
1111111011000101
1111111001110100
1111110011000100
1111100000011101
1111110110010110
1111110000110010
1111100111010011
1111010001110000
1110101100001110
1111010101010100
1111000111000010
1111100101001100
11100001110
100101001110
111000111010
100000100010
1111111101101110
1111110110100100
1111110101010001
1111110001000100
1111110100110111
11110001000
1111111001000011
1111110011010110
1111001010111100
1111011100100001
1111010010011101
111001110
1111100100011010
11010010
1111110100110100
1111011010010110
11001111000
1111101111111001
1110111111011001
1110011101001101
1110111010000000
1111011110011111
1111100011000101
1111111010110011
11110111000
110101110110
100101101111
10000011000
10111100100
1111111100110000
1111100011000001
1111011001101010
1111101110000011
11000101111
1111111000001001
1111100110001111
1110100010010010
1110101101111000
1111011100011100
1111100000001110
1111011101000000
11011110100
1111111111010111
10000100110
100101000010
1111101100001110
1111001011010111
1110101110010000
1111001101001010
1111111001101011
1100
111101011
10100001100
10101001101
10100110110
11011011
11000111
101
1111010111001000
1111010111110000
1111110001100101
1110110000
1111111101001101
1111100100100001
1110110000110101
1110011001010001
10100000
1111101110100011
1111100110100100
1110101010
1111101010101100
11001000100
11000111111
1111111010000010
1111011100000101
1111101010110000
1111101101011000
1111110101111010
100110001
110011100
1011101011
1001011100
111011001
100001011
1111111010010111
1111110111101011
1111100001111111
1111110011010010
111
1111110100100010
10010111000
10010011100
1111101011100000
1101111110001111
1111001011000111
1111000101101001
1010101
1111100100000100
1111011100010001
110000101
1101110110
10110011001
1001101010
1111111100001000
101011
1111101101111011
1111101001001111
1111101110110011
1100001001
1110100011
110111000
1111111110101010
10101100
1111100101101001
1111011111111101
1111101100000011
1111101010000010
1111101101011001
1111110100011001
1111111110001000
1100110111
1110110111101010
1110110111111100
1110101111001010
1111011101101010
1111111111101000
1111100001000011
1111100001010001
10100111000
100110011
11110011110
1111111100001010
110010001
1111111000010110
1111111100011100
1001111011
1100100000
1010010010
1111111111100111
1111111010000011
1111111101101010
1111111100111000
1111110010101000
1111111100011010
1111111000010000
1111111001010111
1111110011101010
10011011
1111100111000000
1111010011110101
1111011000101111
111101010
1111010101111100
1111100010000000
1111101100110001
1111110010110101
10000111
1110000100
1111110101100110
1111111000111001
1110011011
1111111101101010
1101100011
1000101110
10101111000
1111001
1111110111111000
100011001
1111111110111111
1111110100111001
110001
1111100111001000
1111110110010010
1111111010100000
1111110100011111
1111111010100110
1111010001010010
1110101110101001
1111011101101100
11000011100
10011011
10110100001
1111100000100010
1000010001
110100000
10011101
101011100
1111110111100110
1111111011111101
1111111011001110
101000111
100001101
1111001110
10100
1111101001111011
1111111000110111
1111101010101111
1111111000100000
1111110000001111
1111101101100101
1111110010110010
10010001
1111101010110111
1111100111111011
1111100111000001
1111010110111001
1111101011110100
1111111110010001
10101111110
10110111
10010100110
1111110010111011
1111110010100000
1111111110010000
1101110011
101100001
1111110000110001
1011000101
101000
1111110110011000
1111111111000100
1111110011010000
1111100111100001
1111101100010001
1111101001110011
1111101000000001
1111101110101000
1111100111100000
1111101001110010
1111101001101010
1111011111110011
1111100001101111
1111001101101001
1111110000011001
1111100011100101
10010001010
1111110110000111
111001010
1111101111001111
1111100010101110
1001000
1111101101100001
1111100010101001
1111111010110100
1111101110100111
1111110010011011
1111111110000101
100000011
1101001101
100000010
1001110111
1111110101101011
1111100001111111
1111011001010111
1111101100001111
1111101110010100
1111100001011111
1111100000010101
1111100110111010
1111111101001010
1111100100101011
1111100010110000
1111011100010000
1111110110011101
1111110011000010
1010001000
1001001110
1111000011101000
1101000101
1111101100101111
1111111000010111
1111111011011101
1111111001111100
1111110000100110
1111110101011011
1100011010
10000001010
1111010101
10110101111
101100100
1111111000111100
1111110011011101
1111011100010100
1111100110110001
1111111000010100
1111111010010111
1111011001110100
1111011111011110
1111110110110110
1111101101101101
101100011000
11000010
1111101111010101
101000000
100100111
1111100110
100101001010
1111111110111100
1111110110010101
1000111011
100111000
110010100
10101000
10110100001
1111111001000000
10010011100
110111001
11000010111
10000101101
1111111001111100
1111011011111000
1111010101101011
1111101101100010
1111101100011110
1111110111111111
1111010101010111
1101101000
1111011011010111
1111110000000011
1111111000110100
1111111111101110
1111111011011011
1111111100110010
1111011100101101
1111100011001011
1111110110111001
10101101010
1111100100101110
1110010000
1000111010
1100001111
1000111
1111110000110111
1010101001
101001100
10010011110
1110101101
1001011101
1111011100100111
1110111010111010
1111101010111000
11000110
11111100110
1111101010100000
10100111001
10001100111
1111111000101010
1111110111111011
1111111100000101
1111111100010000
1111111011100110
101110
1111011111100100
1111001000100111
1111101100100101
1111001111110000
1111100010100111
1111110011010001
1111111000101001
1000101000
1111100010
1111111100001111
1111100001110000
1111011010100100
1111000011110101
1110111111010000
1111011110001000
1111110000000101
1011101100
1111110110001111
1111110000111001
1100000101
110100111000
1010
1111100101111001
1111100100110010
1111111010110110
101111
1111111110011001
1111111111011111
1111101011000010
110101001000
1111110111110010
1111010101000001
1111011100101110
1111110101100101
1111101000110010
1111001010111001
1111101001011001
1111011001110111
1110101111101011
1111000100001100
1111011011111111
1111110000110110
1111110111001010
1111111000111111
111000111
1111110110000111
1111111010001011
1111101000110110
1111011101100110
10001000111
1111110000111010
100111101
11100010
1111111011001000
1111111111000100
1111111111011000
1111111111001000
1111101000010001
1111101000010011
10110111000
111100101
101011100
1111111000011100
1111011010011010
101101110
10010000001
1111101111100111
1111101111001011
1101110011
1111111101100000
1010101011
101011111
111110
1111101100101001
1111101101001101
1111100001101000
1111111010100101
1101011
1111111110011010
1111111110111000
1111111110010010
