1111010000101010
1111100111111000
1111111001110110
1111011010010001
1111111011110110
100000001101
1001110101000
1110110001100110
100111101
1111110001010111
10011
1101111100110000
11000001
1111110101000011
1111101100011001
1111111011110100
1000001001010
100001110100
1110010001000111
1111101000011010
10100010010111
1111100011000001
1011100011
1110111111100110
10010111001
1111011111011100
1111100111101001
1110010101010000
111101000110
1010010101101
