1111100011110011
10011100000
111100011101
1111100011010011
1000101101010
1111110011111011
1111101001100000
11110011011
1111101010001000
100111010111
1110110101011111
1111101101001101
1000000000001
1111100110100000
1100101110100
1000100011000
1110111010001011
1100010011010
1111111000101100
100110111000
101000111001
100101001100
11110110011
10101100010
10011111110
1100101111
1111000011100110
1111000010011000
1111001100011000
1111010110110011
