10000011101
10101001001
110010101110
1111001001110101
110101101010
1111110000111110
1111010010100101
1111010010010101
1111111011000000
100100110111
1111010001011111
1111101101000000
1010101110101
110101110
100000111101
11011011010
1111000100100001
1111000001001010
1110000100100110
1000100110010
10100010011
111100101100
100010100110
100001101
1111110100001100
1111111110010100
1111000111110110
1110110101110101
1111001101100011
1111111001110100
