1111011110001
1111000001111100
1111000111001000
1111000100111
1111100001000000
1011111010001
1000011001010
1010000000111
1001000110
1111000111001100
1100011101
10010100000
10010010110100
1101011010
1111100011001111
1110011100001110
100001110100
1110111010010011
10010001000
10010011101110
1110111111110111
1110010010000110
1100111110100
1111101110101011
10101000000
101100001
1111011000111
1111101100110001
11000001011
1111010100011000
