1111111101011001
100100111
1111111110001110
11000110
10011110
1111111011100001
1100
1111111011111100
1111111100110111
1111111111101011
1111111101011100
1111111101111010
1111111111101110
1111110111000110
1111111000111101
10101000
100100110
11100100
11011010
1111111110000010
1111111011010100
1111111100011101
1111111011010100
1111111100101111
1111111101011001
10000
1111111110000001
1111111111110010
1111111010110001
1111111011001100
11111011
1111111111010011
1111111000101011
1111111000000011
101010
10110100
11110010
1010100110
1111111010011000
1111100100111101
1111101101111001
1111110100000100
1101010111
100000111110
1100010010
10010110
11000100111
1101110111
101111011
1011011010
1111111110011010
1111111100000101
100010
100010011
1010110
1111111110110100
10101001
10010110
1111111111000011
1111100001011000
1111011110101011
100010001010
1111111001111001
100011010011
1111111000110011
1111101011011101
1111110010001011
110001
1111011011101010
1111011010001010
1111101101100010
10011111011
101011010011
101100010
1110000000
10100001000
10111100110
1111110101110111
11010100111
10101000000
1111011010011111
1111111000000000
1111111111010100
1111111100000101
1101110
1111111110010111
101101001
1111101011101110
10100010001
11001100
1111111101101111
11001100001
10111
1111111000001111
1111101101010111
1111100100100010
1111111100111011
1111110101011001
1111110111110001
1111110101011001
1111101101100110
1111011110101101
1111111010011100
10101010000
1011001101
1111111001011000
10000101011
1111110100010111
1101011000
1111101100101111
11111100100
100000111
11110
1111110101000011
1111101110100001
11000011100
1110011010
1111100101110110
1111000101000010
1111011111110100
1111101111110000
1111010100101101
1111100010101110
1111100111100110
1111100101111000
1111101010110001
1111111100001101
101001100
1111111110111110
1111111110101101
10010
1010010101
1111111100101010
101110101
11110001001
1111111101110111
111001100101
10010011001
100110101011
1111100101101011
1100100
100100110
1111101011001111
1111100011100010
1111011111110001
1111011010011000
1111111010000011
1111111100000001
1101110
1111101111000011
1111101000111111
1111110110100011
1111111001010001
1111110101010100
1000010000
110001001
1111101111111111
1111111100011001
1111110001000000
1111110100101010
1101001
110000000
11011011100
1101010000
10010011000
101110000111
110101011101
1111111101101010
11011
1111110111001111
1111110011011100
1111101010100111
11000001000
1111010100
1111111100100111
101110000
1111101011110011
1111110000100100
1111100011011010
1111101001010110
1111110011011111
1111111001010011
111110001
111110000
111001110
1111110110110101
1111101111101111
1111011111101010
1111111000100000
1001011000
1111100111100111
1111111000110010
11111110
100011010101
10111001010
1110000
1111111100110110
1111101001111010
10101100010
1111111010011010
1111011111101100
1111101101101100
1111100100010100
1111101101010111
1111111011010011
1111111001101111
1111101101100101
1111100010110111
1111101100011011
1111111001111001
1101100101
1001011
11000000110
1100000111
1111110011101110
1111110111000010
1111111010101011
1111100011101101
1111110111111001
1011111101
1111010101000100
10111111010
1000101001101
1111101111101111
101000101
1111100001000110
1100101111
1100001011
1111001101011001
1111110100001100
1111110100000110
1111110101000010
1111111111101011
1111111010111011
1111110000101100
10010111
1101101110
11001010101
10111001000
10101101010
100100011
1111101010001111
1111110000011001
1111111111100110
1111110100110110
1111110010101101
1111111010011010
11111011
1111011100010011
101111100
1011100100111
1111111000100111
1111110101110100
1111110100000011
1111100110110001
101010101000
1111010100010110
1111001111110001
1111101100001010
11100110
10110101100
10101100110
1001011100
110001000100
111011001011
110010010110
1000101111001
101001111011
10000101000
1111110100101010
1111101010001010
1111100010010001
1111101110101100
1111111001010100
1111111111101100
1010010
1111110010010100
11101110
101100111111
111100
1111111010001101
10011001
1111101010100111
11100100001
1111110110110000
1111010100010010
1111101111001100
11010110110
100100001100
100101001110
101000111110
11010111111
101001101111
111000101011
110010011010
1001001110100
100101001100
1111111001101010
1111110101111000
1111100110100111
110011000
1111100011100001
1111111111011111
1100000
1111110111000011
110111010
1111111110110001
1111110101001110
1111111100010110
1111100000101000
111110100
1111110101
1111110100110110
1111110110000100
10000110100
100001100010
10100000110
100000000101
100101110001
1011110001
10111110101
11110001000
111000111011
1010000100001
1001111100001
101010101001
10100100
1111110000111001
1111110110011101
1111100101000011
1110101
10110111
1111100101001001
10000001011
111010111010
101100111100
1111111101101111
1111011010101100
1111101011011100
1111111110010011
1100111111
10111100100
100001100011
100011000011
1111110100011111
1110110
1101000110
1111111110111110
1011011100
100010011000
1000100100110
1100100101101
1010101101100
100100111101
111010000
1111110111010011
1111111001111001
1111011101001010
1111110001111010
100001000111
1111011101100100
10000110001
110001000110
100001101110
1111111010000101
1111010110010000
1111010011110100
1111111010010101
1010010
1111111111100111
100101101
1111101110011100
1111110110011101
1111101011011110
10101010000
1110001101
11101001000
11100000001
101011101001
1001000111110
1001011110011
11101011001
1110001000
1111101101001010
1111110101101101
1111101111011101
1111100101010001
1111111100001111
1111110101100101
100100111101
100011111101
1111101101010000
10110011011
1111111111000101
1111111110111001
1111110101100110
1011100110
1111110101010010
1111110111100101
1111101000010010
1111110101110100
1111101001100101
10101000010
10110001000
11010111101
1111000111
11011000100
101111010000
101110111010
11000010110
1010010111
1111111000001010
1111101100111100
1111101100110010
1100110
1011001000
1111111111011110
100010100100
100100101
1111101000000000
10000111111
10101000
1111111000001000
1101000101
100100001110
1111001
111111110
1111110000100100
1111111011101111
1111100110000001
1000100
10011001110
100000101000
10101010011
101010000000
1000011110000
100111111111
1011011110
1111111110011110
1111100010101001
1111101011101111
1111111010101100
1101001110
101011101
10010100100
10100
1111111110100110
1111110010100001
1111111000111010
1111110101000010
1111111010100011
11000000110
1011010001
101111000
1111110100001110
1111110101011101
1111111011001110
11011010
1111100111
1111100011
11011001011
11101000100
110111110101
111100101111
110001001111
1111111101010011
1111100100010000
1111010110111101
10011101
1111101111100111
1000110111
11011111100
110011111110
1111111010101010
1111010101110011
1111100001011011
111000
1111111101100100
1111100010100111
1010001001
1111011001000011
1111111000100110
1111111000000110
1111111101000100
1111111101000001
1111111001100000
11110001
10001110110
11111111100
100001100011
1000001011001
110110110001
10100100100
1111110011000011
1111101110010111
1111101000011111
1111000110
10010000110
101010111111
11111010110
1010001111
1111010011110011
1111001111010010
1110111010000001
101011111
1111101100000001
1111011011110111
1111110001110110
1111111010000010
1111111101000010
1111100101010111
1111110101001111
1111100011011110
1111101011101010
1111111001000111
100001101000
11001110011
110100010100
100101001100
1100011110
1111101111100100
1111110000001110
1111101110100100
1111110100100010
1100011
1111110111000000
10011111
1111111110100001
11111101000
1111001000000110
1111011111110001
1111011100010010
111010011
1111101011000010
11100010000
1011
1010101011
1111111010010001
111111
1111110110110101
1111101111101110
1111110110011110
1111110001011100
111100001
10110101111
10000001000
1111010001
1111111010000000
1111110101110011
1111110101100101
1111110111011010
100110011
111000000
1111101111100110
1111101010011111
11010110000
11111001010
100101
1110011111101001
1111110010110001
1111111011110010
1111111011001011
1111110100011100
1111101010000001
1001110001
1111011111011111
1111110100000111
1111111100010001
1111111111011001
1111110100111001
1111100000001100
1111111111010011
1111111011100100
1111111011100100
1111101110110011
1111011110001010
1111110011100001
1001000010
11000001010
101011000
10000011
1111101001111000
1111111000010111
1111100101111101
1111111010001000
1000000100
1111011001110011
10001101111
1000010100
1111110001111111
1111100101001111
1111010110001110
1111111101110011
1111111010011101
1100010101
10111110110
1101111001
110011111
1111110110000100
1111111000001101
1111111111001011
111101010
1111110001101101
1111101000101111
1111110101011100
1111110111101001
110011110
1111110011000101
11100100
1001101110
1111101111101010
1111011000100011
1110010
1111111010001011
1111011010100001
1111110110000000
100110111
110011
1111101100010100
1111111011010010
10100
1111111101001100
100101100
1000001010
1111111010010100
1111111101011110
1111110110000001
1111101100010100
1111100111101100
1111111111110000
1110011010
10000011111
1111111010101100
1111110011001000
1111111000010110
10010011111
1111010111
1111111100111010
1111101100100001
1111100011010100
1111010010000000
1111101111001110
11011101100
1111110111000001
11011100
100000011
1111110011110100
10010011110
10001111011
1111010011101011
1111100100111001
1111110101010111
1111101001100100
1111110011000111
1111110101001011
1111011000100000
1111101001100001
1111111110010000
1101100000
10011110100
111101110
1111111000111011
10000111111
1111100111
1010000111
1111100110011110
1110111111000111
1111001010011111
1111010001100011
1111101010110101
100110011011
1111111010101110
1111111110000011
1111111010100001
110111011
1000111111
1111111110001001
11100001
110101011
1010111100
1111111000100110
1111111011011110
1000111001
10010011100
1011111100
10100100100
10111011111
11101100010
101011011110
1000111001110
11111101110
11011001101
1100100100
1111110100111010
1111010000001101
1111011001100100
1111011111011100
1111001111001111
1111101001111101
1111111010101110
11100011
11110101
1111110000001000
11001001
10000111110
1010011000000
110100110110
11010101110
11101011011
1000101110110
1001110101111
1010110011011
1101011001111
1110100010000
1000100110100
1000111110101
1001000010110
1001111001010
1000111100011
101010110110
1101110010
1001111101
101101101010
100110011100
100111001111
1111101010110010
1111100111000110
1111111111101010
1111111011001011
11111011
101010000
1111111011111011
1111111000001111
100011000110
111000000
1110100001
100111111100
101111011100
100011010001
110101010011
100101100111
1111000111
1111110011101111
1111110011110001
11110101110
1000101110010
110101000011
101110010100
100011110110
11111010000
1111100001
1100111000
1111111110010100
1111111100010001
100001010
1111111110011100
1100100
10111001
1111111010111100
1111111011110100
1111111101001111
1111111110011011
100000111
1000000011
1111111110010110
111111
1001101101
11001011
1001001111
1111101101100111
1111011100010000
1111110101111110
1111110111001100
1111111000000000
110111100
1111111011000100
1111110110001001
1111111111000110
1111111010100010
100010010
1111111011011010
1111111101000011
1111000
1111111110011010
