10010111
1111111111010011
1111111111110100
1111111100000001
1111111100110001
1111111011010011
1111111110010110
1111111101000001
101000001
101001010
111011
1111111101101000
1110001101
1111011110
1111111111110111
11000000
101011000
1111111110010111
10100001
1111111110100111
101010110
1010100
1111111101011011
100001010
1111111011110111
1111111011000010
1111111011110011
1111111110100101
1111111010111011
1111111011111010
1111111011100000
1011010
101010100
10000001011
11010001001
100111110011
100100100111
110111011101
111111111000
100111111100
101111010101
101110001010
1111111100101011
11001001000
11000110010
101001110100
111000100101
100101010011
101111001101
101110111010
101010100111
100111010001
10101110
1010101
11100000
1111111010101110
10101111
1000
100111100
10111101001
10100111000
1001110000
1100111111
100101111010
111010001111
1000001001001
1101000000100
10011101001000
110101010100
100111011010
101111001111
11000110010
1111110010110010
1111011111010100
1111011110001001
100001111101
1001010001
10100111111
1001000110
110010111111
110111000101
101011101101
1111111100110100
1111111111101001
11011011
1111111111110100
1110100001
11000011110
111001101
111110110001
1001100101001
1100011001111
1100100101010
1011111001101
1100110100001
1011000110001
1000000010000
1010100111010
111110011010
101011110100
1011100110
101110
1111011000101100
1111011100000000
1111110110100011
1111110000100101
1111101100011101
1111111110111010
100110001111
1001010100
1111110001101111
1111111011010110
1111111111111000
101101011
1111110101010011
10110101
1100010011
10110001
10100100011
110110111000
111101100111
1010011010010
101101100100
100110011001
1000110010000
1001010111100
111010100011
110101011011
110100111001
11001000010
1111111110000101
1000110101
10000111011
110100111
101010101
1111101110111011
101001110
1111111011010000
1111111000101101
11110000011
1001111
1111111100000001
101010110111
1111111101001110
10100011
10111000
110010001010
110001110101
10101010100
100010011
1111101000101011
1111011100100001
1111100011101110
11000100
10010001111
1000000001010
110000110011
1010000001
10010101
1000110
1111110000011101
1110100000
10100110011
1111110001110011
1111110100011100
1111100110001111
10001001110
1000110110
1111111101011010
10101000
10110101100
10101001001
10101110001
101001111100
110100100010
10011010010
10010110
1111110001010011
1111110000100100
1111110100111001
1111111110001000
1111110000111000
1111111010000110
1110001011
1100011000
1111111011101001
1111101111110000
1111100111010111
1011000
1111100010010110
111001011
1111000100
1000011
1111101100010011
10000010
10000100110
1111111110011100
10000011001
1111110110011101
1000101010
111101010000
100011110110
1000100
1110011010
11001100100
11011110101
111000101
10000
1111110000010001
1111100000011110
1101
1111111101011000
1111100110001110
1111111100010110
1111111101010011
1111111100100101
11001
1111101010010000
1100010000
11111010101
110111100
1111100110001011
1111111100010011
10010100101
100110101010
10110101010
110101001111
101011001111
10010110100
1111011010100000
1111110001111101
1111111100011000
101100110
11110000010
10110101010
11010001100
10000000001
111110000
1000011000
10010101
1111101010000110
1111110011011110
1111110001101000
111001011
1111111110010001
1111110110110001
11111001011
1010001101
1111110011111110
1111100110000110
1111100111010101
1111110001111000
1110000101
1110011100
1011011000
1011000100
1110111110
1111101011110010
1111111110101110
1111111010111010
1110001
1110011001
1111101001
10101010110
10001110011
10110000110
10111000010
111000111
1111110111111001
1111110100111111
1111110000111001
1111111101000100
1111101110010000
1111100011
1010010111
1111110110001101
1111011111011001
1111011100110101
1111101001010111
110101011
1100010001
111011111011
110100011010
1111110110010000
110001101101
1111111101110001
101111101
1111101010101010
1111110111110110
1000001100
10110011011
10111000111
10101111110
110101010011
101101111011
10001100
1111110010011001
1100100110
1111110001011011
1111110010111101
1111110000100001
1111110011010011
11000101011
1000000011
1111110101100001
1111101001000111
1111110001010101
100100000110
1001001011
110000000110
1111101011110011
1111111010111110
11100110111
1111111001100001
10110111
1111110110000010
1111100110001111
1111111000110111
11010111
11111000
1011111011
111001000111
1000001100101
1111111111101110
1111110110101110
1111111000101000
1001011100
11101110101
101010111
1000101011
1111011010110010
1111111110000101
1011111
1111100111001011
111100011
1111111011001010
1101110110
1011100100111
1111100000111010
1111110100000000
1111110111001111
1111110100001000
1111101000100111
1111100000100011
1111100111010001
1111101000101000
1111011111001010
1111111100000011
11100010011
101110010101
101100101011
1000010011
1101111010
111101000
10000100101
10100110101
1011011000
1011000111
1111101010001111
1111110111100001
101000011
1100011010
1011001010
1111101000000101
101011011
1000110111101
1111111101
1111001000110011
1111000111111000
1111010010011100
1110111101110111
1110111100011010
1111001110011010
1111100010010001
1111010010110000
1111011111011110
1111101110001110
1111111111100101
111111010
10011000111
10010111100
101011101
1111110111000100
110011011
1111111001001101
1100110110
1111111100110110
10110011000
11011000100
11101011110
11101010111
1001100011
10001101100
11010011000
111000011001
1110110000101110
1110101101010110
1110111111110011
1111000010100101
1110111110101111
1111000110011001
1111010010000010
1111010010101101
1111010000101000
1111010100110101
1111101001101010
1001110000
11000111101
11000000
1111110100001011
1000111110
100110111
1111111010101010
1010110101
100101101
10000001111
10101111001
101000011001
1001100000
1001101111
10111001101
1111111111011010
110110011001
1111101000101111
1111011101100111
1111001101011110
1111011000101111
1111010010011001
1110110100101100
1111001000010001
1111001111110000
1111000100101001
1111011111101010
1111110100110100
1000111110
1111110111
1111111001111110
1111110000010011
10001100110
100011110000
11111000111
10100100000
11010100011
100110000011
101001110111
1000010110100
1111101011111011
1111111010000100
10100000001
10001010000
1000010100111
11100000111
10111001000
1111100000100101
1111100011101011
1111100101000101
1111101011100111
1111101110011111
1111111111011111
1011110
1111110110100101
1011110
1100010110
111000000
1111111110011010
1111110010010011
1110010100
11111000010
11011100100
1011101101
10011011110
11001010111
11101010001
1000011101000
1111110010111000
101110111
101011101
11110110
10101100101
11110100100
1001110010111
1101111001
1111110010100101
1111111011110001
1111111110011111
11001110
1111110010
10100101101
10111011111
1101100110
1111111110010101
1111110010100011
1111111011010100
1111111111000011
1111111111101010
101100110
10001110111
1010111001
1111110100
1111101111
101111100011
110001100001
11
1111110110001111
1111101100010010
111010001
1111100011001000
111000000011
1100101001110
1000001011110
1010111101
1111111111110110
11011010000
10010011111
1111100010
111100001
100010100011
10001010111
1111101101101001
1111111101101110
1111110101101011
1111111011111111
10000101010
111010010
10110001001
1111110010001100
1000001100
1111101010100010
10011110101
1101101000
1111101111011101
1111100111010010
1111111100010111
11100010110
1111101101101111
1000000011010
1011001100101
1010010110000
110010100000
111101100101
101010001000
11010111000
1010110001
10100101
111000001
111101100
10101110
1010010011
1111101111011101
1010100
101000110
1111111010110010
10111111001
1111110111110110
10010010011
1111001011
1111110100111010
1111101000110011
1111101111101110
11000101101
10011111
11101111011
1111111110111010
10111000110
1000111010011
111000010101
110100110100
1011100101111
101011110010
11110100110
101011001110
10011100001
1101100000
1111111001001110
1111111111000010
1111101110101011
1111100011011111
1111111110011101
1111111100
1111111100100001
111000100
1111110010001110
1111111111001100
1010011101
1111101010100011
1111010001111101
1111111000101101
1111110110100000
110101010
101111000
111010
1111101101111111
1111111110000001
1111111010010010
10010001101
10001010001
1101001111
101000001000
11110101000
11110000101
1000000101
11000010100
100001101
1111111011101110
1111111011111000
10011000010
1100111111
100101011
100101110
1111010011111001
1111110111100000
1111101111011110
1111101100011011
1111100100011100
10010110100
1111111111100001
100101001
1011010
10100100110
1111011010101110
1111111011110110
1111110111010101
111011
1111111100011001
1111100110110110
1000010
1010000100
110110100
1011101001
10100010111
1111111111001010
11000111
11011001010
10100111110
1111111101011000
1111101101001001
1111101101101001
1111110011110011
1111011011001101
1111101101011011
1111100010110101
1111101100111111
1111111001110000
1110011
1111111010110001
1111111100100110
1100011001
100000110111
1111001111110100
1111011000010100
1111111111011100
10011100
1111110100100110
1111101001101000
110100110
11110011101
11110010001
10110001000
111
1111111110110100
10001000
10100111000
1001110
1111101010110101
11111001
1111100100011101
1111100110001010
1110111110100110
1111001110110100
1111110000011000
1111110001001000
1111111100001100
1111111100101000
11110001
100010011000
1000010101100
1111100110110110
1111101011000110
1111111000100111
1111100100100110
1111101000001101
1111111010100010
10010100011
11010100011
100110110100
11110100011
101000000
1111111000111100
10110001010
1010000001
1111110011100000
1111110101000111
1111110100110110
1111000111
10000011
1111001010111011
1111111011111100
10110010000
110011000110
1111111101010101
1111111111111100
101011010
1111111011111110
11001011111
1111110101001111
1111101100001101
1111111110101100
1001100100
111111
1101001101
10100111101
100110110011
111000100001
11101100000
1111101111100111
110100011
10100101000
1111111000011100
1111111011101001
1111111010011101
10110110110
1101101010
10111000111
10000100000
1111010001100100
11111000101
11101001010
1111111100111101
11001010
10000111
1111111100010100
1111011111001110
1111011001000101
1111100011110101
1111010101100110
1111011110011111
1111110010000111
1111001010001110
1111101000101011
1111110101100100
1111110111111111
1111101100000100
1111010001011011
1111010000010000
1111111100100010
11100101101
1100111111
100000011111
11000101101
1111011100111100
11000101000
1111110111000010
11001000110
100011001
1111111100110111
1111111110001110
1001101
1111111111001000
1001111
1101011
10110001100
110010101100
1111110010100001
1010101010
1100011000
10110000110
100100001100
11010101101
11
1010001001010
101010111010
101010100110
110101000100
1001011000100
100000000010
1000011000001
100101010
1111111001001101
1111111001010110
100011101011
1111010
100100000
100101010
110100
