101011011
1111111101000001
101
1001010
1111111110001000
1111111100100111
1111111010100100
10000010
1111111111111110
1111111101011011
1111111100101111
100010
1111111011
1010100001
1111110000110010
1111111111001111
1111111100000111
11101001
11001011
100010111
100111
1111111011001110
1111111011000111
100001101
10000010
1111111101101110
1111111010100111
101011111
1111111110000111
10101
1111100
1111111010110110
1111111010011110
1111110111010111
110101000001
11111100110
1111010010
10101110010
101111100111
1000101100111
1101011010110
1110011000111
100110100011
10111000000
101101001
1111110101100000
101011111010
1010001010
1111011110001001
1111111101011000
111001100
10111101000
1011111
1111111100011011
10100110
1010010
1111111100000111
1111111010100110
1111110011101110
1111101111111101
10101110111
100100110001
1111101001100001
1101001110
1111010001111100
1110111100101000
1110111011110010
1111001110110100
1111010010000100
1111110010111110
1111110111001010
100001000011
110100100000
1111111101001010
100110110110
100111111000
101101111011
1111111000011011
1111110101111111
10010000101
1111100010000010
1111011000010110
1111111100111101
1111111100100001
1111111101000010
1111111111000101
1111100010
11001001110
100110000010
1111011011110101
1111110111110010
100101110001
1111001101010010
1111100110001000
1111110100110010
1111000011110111
1111100011010000
1011001
1111110000001010
1111110110111010
1111100001
1011000111
101001010010
100111001100
100101111100
101010110010
10001000110
11010100111
1111111101
1111110011000000
10110011010
11001010
1111111011100010
1111101010100011
111100011
1111010100
101111
1110101010
1111011011000010
1111110010110110
1111100101001010
1111110100101111
111000010
1111110111110011
1111110010100101
1111110001111000
1111101100000100
100101010
1000010100
1111111101110011
10011110011
1011001000
11100011
11001111001
1010000110
100100101101
10000111010
1111101110010001
100011101001
1111111010100111
100010101
1111111100101100
100101000010
1111111000111010
1111101000110001
100111011
1111101000110011
1111100011100101
1111110011111000
1111111110011110
1000010001
101100111
1111110011000010
1111111101010011
1111111100011000
111100
1100111111
1100001010
1100010
10011110100
111101000
1101100
110100101
100000110010
10111000100
1111111101010110
10110110000
10011
1111111011000010
1111110000010100
10111110000
1111011101101000
110000
1111011101101001
1111100001111100
1111110110010100
1111111010011100
1010101100
1111111111001001
1001101001
1111110111111010
10010
1111111111100000
1011100
1111111011100110
1010010
1011011010
11110110010
1010110
110000110
1111111000110011
1111111110101011
110010111110
100100101110
1010011111
100111000110
1010011
1001100011
1111110111110000
1111011001100100
1111000011010101
1111101101100001
1111100100011110
1111110101010110
1101010
10111011101
10110011111
11000011
100011011
1111111110100100
1011001011
1111111011101010
11011101
101000001
10110101010
10011101100
10001111100
11000010101
10001110100
10111000101
100000010011
100111110111
1000000000011
101010101101
110110111
1111100100101100
1111011011100010
1111011111001000
1111010011101000
1001100001
1001101
1011010
1101111
1001110
1111111011111101
10001100101
110010110
1111111101010010
1111111001000100
1111110100001101
1111111010001101
10101111
10000000000
100001101100
11111110100
100000101101
11000000010
111100111010
111101010011
101101101100
1001110010100
10011101000
1111110110111010
1101011100
1111001110101001
1111011111101110
1111101000101011
1111111111000100
1111110111101010
1111111001011100
1111110100111100
101000001
1111111101010101
11101011010
1011011010
1111111000101110
1111100001011111
1111011000101111
1111001110110101
1111000010100110
1111000111000111
1111101000110101
1111110100010000
11110100001
10100111101
1101101100
110100011010
1000101110001
101000110101
101111110010
1111111000101110
10110010110
1111011100110111
1111111110101010
1111110110110011
1111111100001100
1111100111010100
110011001
1100001110
1110100101
11100100
101000
111011001
1111101111110111
1110111111110000
1111000010100101
1110101111011101
1110010000111011
1101100000010110
1101000000100110
1101101010011110
1110000110101101
1110010000111111
1110001101110010
1111010100100011
10111110
110001000011
10111101101
1111111110101101
1111110111011000
1111100100100110
1111111010001111
1110010110
1111111110000100
1111111111101111
1111111100110101
1111110111000011
110001000
1111110110111001
1111100110100111
1111100101111111
1111010101011100
1111001011101000
1111011011001001
1111011000100110
1111010111000110
1110111101001101
1101011000101110
1100000000111001
1011111111110111
1100010000001001
1101000010100010
1101110011100011
1111010010010010
1111110110111101
11001000100
100101010
1111100101010110
1111011010000100
1111110100000101
1111101100110000
1111111010010110
1101011
1111101001111101
110000001
1111110110111010
1111101100000001
1111111100001101
1111111000010000
1111110000000100
1111100011101110
1111101110011000
1111101110101111
1111110101001000
1111001011
1111100000010010
1111000100101010
1101100111001101
1100110100101110
1101000011100000
1101110101011010
1110101000101001
1111010101001100
1111111110000011
1111111110000100
1111011010111111
1111110000100111
1000000
1111100110000100
1111110101111001
1001111110
1111110010100001
1111111000001101
1111111010100100
1100010010
1001101101
1001100010
1111110010001110
1111110110010111
1111110010000011
1111101110100110
1111110100010011
1111111110000001
111100011
1011101101
1111101110111110
1110111110110111
1110100110100001
1101110011110000
1110011101101110
1110100110111110
1111010011100110
11010011111
1111110001011110
1111111000100110
1111110100110101
1111111011101001
1111101000101100
10010001101
111000110
11100111
1111111001110110
10010001101
1111110101111010
1111110001011001
1111110110000110
11001101
100001110
1111101110011101
1111101011001110
100010100
1110010110
10101010100
110
100
1111110000011010
1111111000000000
1111100110011011
1111010000010010
1111011100001110
10100100110
1111110010110110
1111111010101110
1111110010100001
1011101
101111101
1100101010
11101001
1111111001110111
111101000
1110111110
1111111010100100
1111111000000011
1111110101110101
1111110111111001
1111101110011001
1111111101110111
1010111
11010010010
11111111111
100100111
111110001
1111111001011111
1001011011
1111100010111100
1111100001100111
1111010100100000
1111001110111101
1111110111100100
1111100111100110
1111101101100001
1001000110
1111111000010111
1111111011010000
1111110101011100
111010000
1111111111110100
1111111001011110
1111111101010110
1111111011111100
1111101000010010
1111111000101100
10110011
1111110100011101
1111110101101100
10001010010
11110101
10100000001
1000010110
11011011
1010001001
1111111000100010
1111011111100101
1111100101111011
1110100110011011
1110111000111111
101011011
1111101111110011
1110111011011101
10101011000
1111110001101111
11000101110
101000010
1011001111
10011110111
10000110
110101010
1111111001101101
1111110000011000
1111101010011110
100000000
111011
1111110111101001
110010011
1000010010
1100011101
100000101
1111111100001100
10000111
1110110010
1111111101001000
1111010100010100
1111111101110111
1110111111101001
1111111111110001
1111101000011111
1111000111011011
100110011101
111000111
10110011000
1111110101110101
101001010
101000101
1000
100110110
1111111011001011
1111101001001100
1111100010100110
1010011010
1011100001
111000010
10010101010
11110111
11101000
10101011110
11110
1111111100101101
1111101111001111
1111111100101101
1111110101100000
1111110111000001
1111011111011001
1101110111
1111101110100011
10101011111
11001010011
1111111001101000
1111110111001000
111011111
11000
10011000011
10100000101
10010
10110011110
101010111
1111110110101010
1111111001110110
1111111011100110
11100111
1111111011100001
1111111111101111
110011011
1110010001
110000011
1101100
101010010001
1111111100111111
11011110111
1110111100001100
1111101101100101
1111111011110100
1111110110100111
1111111011010011
10100101
1011011001
110100010
1111110110111011
1111111101001101
10000010101
100010001
1111111101101101
10101100110
1111111011011101
1111110010101111
1111111110000011
1001100101
1000011100
10010111000
1101010001
10010001111
10011000010
1000111010
11101001111
1001101111
1111101011101001
100100001
1111010011101100
11111110001
11011101
1111111110100111
1111000010100100
10011000111
11010100001
1000011101
1111110101010001
1100100010
1111111110011110
100010
1010000011
1100011111
1001110100
1000001011
10110111101
1100101111
11111101
1000000100
11011101101
1010100111
1111011100
111111100
10010100101
1111110000010011
10000111110
1000000010
1111101111010010
100000101
1101011110
1010
1111100001000110
111010011
101001001
1100000000
1111110001001110
110000000
101010010
1000011010
1010010111
1111111101010010
1111110111101011
1111111101100100
1010001100
110110001
1111111100010010
1111111110001100
10111010001
101101111
1001010
1111110000110011
1111111001000010
100100010010
1010111110
10110011001
101111001001
1111111111001010
100000111
1111111100101110
1000110111
101111010
101110001
11010010001
1111111110011001
1111110111000010
1000000001
10010000
1100001
1111110000010010
101111111
1111111100000010
1001000
101110101
1111110111001011
1111110110010011
1111110011011000
1111110101100100
10001010001
110000110
1111111011101100
11011001011
1111110110001111
1111111011010101
100001000011
1111111111110111
1111111101001100
1111111100001001
1111001110110111
1001101
100010010
11110000001
1111111110000010
1111101001100001
1111110111100011
10011111110
1111101101000001
1111101101011011
1111110101011010
1010111001
1001000010
101000000
1111110111011101
110100100
10101000010
1111111000001110
11010000100
1011010101
1111101000100011
10000001010
10100111010
1110111010110110
1111011111111011
10101111
1111111011011001
1111111
1111100000000111
1011001000
1111101110001011
1111111100000101
1111010100
111111111
1111111011001111
11110010111
1000111110
101000000
11111010111
10011000111
100101110
1110011000
1110000001
10101010110
1111100111
1111111000101101
1111111110100010
1010001101
100000111101
100111000101
11101010100
1111101001101000
1111100100010111
11011011
1111111010111001
100111000
1111111010110100
1111111001111100
10010010
10011010111
1111100001011111
1111101100011010
1111111100100011
1011000011
1111100001100000
1111101000100010
11011001
10000000011
100001001
1011000001
1111111111000101
10010110011
1111111110110010
11011011001
100001110110
110101011111
110001010110
101000010
1111111011000101
1111111101010000
10001100
10011110
1111010
1111111100001101
1111111010100011
10000010
1111111001110111
1111111011011111
10001101011
10001000111
10001101110
1001
11101010011
10101011000
1100001111
1011100100
1001011100
10001
1111110110001100
100000110
10011001010
1011011011
1111101010001011
1111101111111010
1111111100101001
11100010
100010001
10101000
1111111010110111
11100
