101000011
1111111100101001
11011101
10011001
1111111111001110
1111111110000111
10100010
11101001
1011001
1111111111001101
1111111111110111
10101100
1111101010111110
1111101011001111
1000110010
10101101
1011101
11000101
1111111111101100
101001100
101000101
1111111111000011
1111111110111011
100011011
1011110
10011011
1111111010100010
1111111101110100
1111111100010101
1101011
10110101
1100000
1111111001100110
1111101010111000
1111001111100011
1110110111001010
1110111111111010
1110101101010001
1110100001110010
1111000011010001
1111000001111000
1111101011110011
1111111101011000
1111000110101011
1111010110001100
1110101001101000
1110111111010000
1111000111101101
1110111101000000
1111000011001100
1111010010000000
1111100001000011
1111111110010111
1001
1111111100111100
110011
1111111010100101
1111111100011101
1111111100110110
1111100110001011
1111011100110101
1111011111100101
1110111100001000
1110111011000101
1111011010000011
1111100000111000
1111010100001100
1110110110000101
1111110010001101
1111100000101100
1111100010001010
1111001000010111
1110110110011110
1111100001000001
1111111010101101
1111010111101100
1111101010111010
1111100100001111
1111110000011111
1111110101110011
1111100100011111
1111110101011001
1111111111101101
11010000
10000001
1111100
1111101111000100
1111010110101111
1111100111001100
1111100001111111
1111010111000100
1111011110011111
1111100110100111
1111001101100011
1111001110100001
1111101100100100
1111011011100101
1110110110111100
1111001111111101
1111010000001100
1111011011000001
1111111010110010
1001001101
1111111100011001
11001100
110011111
100111100
110111100
101110011
1111111101001110
11001111111
1111111010110010
1111111011000101
1111111111001100
1111011111101111
1111011100111101
1101100
1111111110111101
1111110111001010
10000100110
11100001101
10101111
1111110000100100
1111111101010110
1111111110111011
1111110001011101
111010100
1111111011011111
1111100111101010
1111111101110001
111101110
1111110000001011
1111110101000111
110111111
1111111110111011
10000110110
100110001110
100001111010
100100110110
10011100001
100100110
100111
1111101000101111
110110110111
10011011101
10001111110
10001111001
11110001011
110000011001
10101010001
1111111011101111
10001000011
10101011101
1010111111
10101110010
10110111110
1101001011
10101000001
11100101101
11100000
1010101010
1111110001101001
11001000
10100010
1111111001011000
1111110011110000
100010100111
11000001110
1111111110111100
11011111
1011001110
100100001000
1111111110010101
1001010000
1011101101
111101100
100000111011
11111001010
1011001010
1111101111110111
1111101011101000
1111111011111001
1000111110
11011000000
100010100010
100100110111
111010111111
110010010010
10101010101
1111110011101010
1111101101000010
1111101011010101
1111110011011010
1111101111101000
101101101001
110111100110
1111111001111010
10000111111
10110111101
1010011000
100111111100
1100111
100001000010
1111111010000110
10101100001
11111100
1111101010101101
1111101111011101
1111101000011000
1111111011111101
1010010101
100011101001
100100111011
100000000000
100110000100
100111010110
1101111001
1111111000001101
1111110110100001
1111101100010000
1111111100101111
110111011
10010011010
110110110110
1111011010010110
1111101000001100
1111100101101011
1101000001
10101111111
1111111011001011
1110111
10001101011
11010010
1111111101101101
11101010
10001011111
1111100101010001
1111101001101100
1
100010010101
100110010111
10110111001
11001111000
1111111100111101
1111110011100010
1111110101100100
1111110101011100
1111100110100110
1111011010101011
1111110100011001
11000011010
101011001101
1111100011000000
1111111111101100
100000001
10100001110
101011
10101
1111111010001001
101011
1100100
1001100111
1000000000
1111111100011100
1111101111101001
1111100000010000
1111110111111111
101001100000
100010000010
11101101101
1111111101010110
1111101100101000
1111011110101001
1111010011010111
1111101000000000
1111010000101010
1110100100111101
1111111111111110
100111100101
1100110
1111011111011000
1111100000111110
1111101000010011
1001111101
1111010101100000
1111101011000111
1111111100110101
1111110010001011
1111111111100111
100
1111111111000101
1111101000011011
1111010011101011
1111100000000101
10011000000
11111010011
100001101111
1111111110110110
10000110011
1111100111100010
1111101101101011
1111100101100100
1111011011011101
1111100001010011
1110110101001010
10001000101
100111111100
11011000110
1111101101010110
1111010101001010
1111111100100001
1111101111110001
1111101111001010
1110000111
11100011
1111111011101001
111111010
1111110000110101
1111101011001100
1111100101101111
1111101110100110
101010001
11010010110
1110000110
1111111010000001
10001001
1111110110011100
1111100010011011
1111101001111010
1111101111010111
1111111111001101
1111101001010110
1111001010111001
110001000111
10001100011
100011
1111110011000000
1110110011000000
101100100
1111101000101111
101011000
101100011
1111111001001000
1111110111010111
1111101111111001
1111011001011100
1111101100110111
1111101101001111
100110101
110001100110
101010011
1111101100111111
1111111111000011
1111111000100101
1111110110111011
1111101100011100
1111100100111000
1111111000010101
1111011010101111
1111011010001001
1111100000011000
101100101
1111110110101100
10011111
1111111000011110
1111010100110100
1110101110101111
1111111101001010
10010011011
1111110000100110
1111110111010001
1111101011000101
1111101110011110
1111001011000111
1111010010010101
1111111000101010
101001110011
1001100111111
11100100000
1111110111
10110001011
11000111001
1110000000
101110001
1111101110111111
1111101000010011
1111011111011010
1110110100110011
1111100010110101
1111110110100101
1111110110011000
11111001000
1111101001101000
1111101100010100
1110110110100010
1111111100110100
11111100110
1111100010100001
1111110001101000
1111100100011100
1111011000011000
1111010011010011
1111100011000001
1100111001
111011001101
101100110011
110111111
11010001110
100000001111
100110011010
11111100100
100111001001
1110101
1111110011111000
1111100100110110
1111000101000000
1110111110100010
1111101100111000
100000001111
11010010000
1111110001010000
110111110
1111000001111111
1111101110011101
11000111101
1111111110110000
1111101111000001
1111011110001111
1111101000111000
1111100011010100
11011110
100101000111
100010111010
11001011100
111101
10110001110
11111100101
101011110101
110000000000
100000110011
10011101000
1111110000000101
1111001100000011
1110101111101011
1111001100111101
1111011001001111
11001100110
110000011
110
1111100101101000
1111010010001110
1111101100011100
1101000011
1111101100011010
1111111011110101
10110011
1111100001000100
1111100111011100
1101110011
101111100110
111011011100
11110101000
1111111000100000
1101001001
101001010011
110111101110
101000111010
10100100010
10100110000
1100111111
1111011101000111
1111011100000101
1111011011000101
1111100011101110
111101001101
10000001101
100101001
1111101101011101
1011001
10100010101
101000010
1111111110111010
1111111110000100
1011001110
10000100
1001001011
11001000011
11100000111
100010100000
1000000011
1111011111101000
10010001100
100110001011
11001001100
10111011111
10010111100
1111110000111110
1111110111011101
1111011111011011
1111000011100011
1111011101000101
10111000
111110100000
11110010011
111110110
1111110101100101
11100000
1000101111
110100
10011010101
1110000111
1110100001
1100101101
10000111001
1010101110
1100011110
110010001
1111100111101111
1111100100110101
1000111111
11010101001
100011001010
10011111101
100000000
1111100110011101
1111110101100001
1111101110001000
110101010
1111111000101010
1111100000101101
1101101011
11100001001
1111111100101000
1111100111110101
1111110001101100
1111100111011111
1111110101101110
100011110111
10001111000
11011111101
11111000011
10010000111
101110101
1010101111
10100100101
10100011
1111111000101000
100110010
111100000
111010101
1111111111
1111111111111100
1111101011010110
1111111011
10010010101
1000011110
1101011100
10001111001
111110110001
111010110
1111111100110011
1111101011011111
1111101000001100
1111110100100100
1111111011011011
11011111011
11111001100
11110100011
10011101111
1010001011
10010100
1111110100101001
1111110111001001
11010100
10001111011
1001011010
1111
1111111001110001
1111111100000100
10
111011010
11101111000
1010110100
100010000110
100001000110
10111001010
101000010000
1111110011001010
1111110110100111
101011001
10110010001
1100100000
11101101110
100001010100
100100101010
11000110011
10001001100
10110111
1111101110100000
1111011000110011
1111111101110100
1111111111101111
1000001
1111101111000110
1111110011010111
101100101
1111111001100110
111010110
1111100111001011
1111101001011010
1111101001001001
100001111001
1111111010001011
1111101000001100
1111100011001000
1110000
1111111001101010
1111111001001111
101000100000
11110000101
11110111111
111110111
10011110010
1111101101100101
1111111011001100
1111110101000110
1111110011111101
1111110110100010
1011111000
1111111010101010
1111110101101010
1111011010000010
1111011111001101
1111101110011100
1111101100010001
1111011110111011
1111101101111101
1111101110111101
1000111100
1000010010
110010110101
1111100010111111
1111000001000011
1111111010011110
1111111100111000
101010101
1111110110110100
11001101011
101011011101
10111110100
1001110101
11000010101
1111111010110101
1111100010111111
1111111001000110
10000100111
1111111001111101
1111101101001010
1111011001001101
1111011101010000
1111101111010111
1100110
1111110110100100
1111111100100001
10000111111
11001101100
1111101100
100011110101
101011100101
111111110
1111100011010101
1111111101111001
1101001
100100101
1111100111100010
1111110110100111
100010100110
1111110111111010
1010111001
1111100110111010
1111111001100110
1111010111100101
1111101100011110
1001100010
1111111010111000
1111011010110001
1111011100000011
1111101100111011
10101111
110101000
1111101110000001
1011111101
1001100101000
1101111011
10101110110
11111001001
10101101100
1111110110110100
1111011111111100
1111111111110001
10001010
1111111110110111
100001011101
1111100101101100
11011110000
1111111100001100
101101001
1111111001010011
1111101001101000
1111100101101011
111011110
1111001001
11001001010
10100000111
100100010011
11100111100
110000100
100101011101
10100000001
100111001100
1001000011111
11011001111
1111100011110011
1111100110010001
1111111101111000
10001110110
1111111010001101
1111111101000111
11011
1111111111001011
1111111101000101
10001111000
101100110100
100000000100
110000001100
1100101101
1111110101101010
11010001001
101010101110
11101010111
10001110100
110110111011
1001010001110
11110110100
11100001100
11110111110
1
1111000110011000
1111011000010011
1100111010
1111011010011100
1111111111111100
1111011111010001
1111100110011010
1111111110101001
101000100
10100000
100011000
100001
1010110
1111011101111000
1111001100101100
101000101
1111110100100000
111111110
10111110
1011011010
1001011000
10111011001
1111011000001110
100100111011
101110000100
1111110110100100
1110111000011010
1111010011100010
1111010010111110
1111011100111011
1111110011110000
1111110111011000
1111011101110000
1111111011111110
100101000
10001010
1111111100111110
