10101000101
110100010
1111100010100000
100111101100
1111010010101110
1111100101101001
1111011110011111
1101000000001
1101000010
1111000000011011
1111101011111011
1000000111110
1111000000111101
1001001111
1111010101000111
1110110100000001
1000010111
1111101011001110
10000010001111
1111010110100111
1110000001011110
1110101100111111
1110111101110000
1111111111000101
1001100101
1111111001100000
100011001110
1000010110001
1111111010000111
1111110110000110
