1110001000111001
1111010010000100
10101110
1111011011111100
1001100100101
1110101111010111
100111100100
1111101011000100
1110001000111100
1101000011
111101001010
11011011100
1111000000000111
1110100101101011
1011100000100
10011100000
1001110000100
1001010111000
1110110101110011
101101111
1111011111100000
101000101000
111100100011
1111110001010100
1110110010000110
1111010000010100
1111010010011001
1111000101000011
10101001010
1111111111110110
