1110111011100000
1101011011100
110000010010
1111011010111111
10000001011001
101101010000
1101100000011110
1111111010011110
1001101000
100101011001
1001010101111
10000110101110
10011001001
1111011110001
1111101000110101
111011101001
1110100010111110
1100101000
1111101010101000
1101111111000110
1111010110000001
101100010111
1111100111
1111101110101001
11101100111
1111010001000010
1110111101110001
101101100111
1110001011110101
1111010101101110
