1111100010110110
11100
1111110101001011
1111010011101111
1101111001111010
1111000000010000
1100110010110
100000111101
1110111110100110
1111101101111111
1111001011100001
1111001001101001
11001011000
1110110000111001
1100010011101
1111011101010001
10100001000011
1111001110000101
1110101000100001
110101100001
1111001101110000
1111111111100000
1110110011101111
1100110000110
1011110000011
1110110000000
1110011001110
1000011100011
1111101110110111
110110000001
