1
1111111110011011
100011111
1111111111001000
11000101
1110110
1111111110010101
110000
10101010
1111111010100001
11010010
1111111100000010
1111000
1111111100110110
100001
1111111100001001
1111111110110000
1111111110100000
1111111101101101
1001000
1111111100100111
1100110
1111111111010000
1111111111100011
1111111101011010
10100110
1111111110011000
1111111011001101
1111111010100001
1011111
10010110
1111111
1111111011000110
1111111101011001
100010
1111110111100101
1111100011010111
1111101001110111
1111100010000100
1111011111111000
1111100011001001
1111011010100110
11101111001
1010010101
1111100101101011
1111001100000100
1111110010100001
100111101
1010100010
1111100100
1010101010
110011010
1111111111101101
100000110
111011
1111111101010010
1111111011100111
100111110
1111111001100000
1100101
100
1111101100000001
1010010000
1111010100001110
1111001101010101
1111000110001101
1111011010010100
1111100001010000
1111000011110110
100110001100
101001001101
101001001001
101010101110
10111110011
110110101
1111111110010100
1111011001110010
1111111110010011
1111110101010111
1111101101001010
11001011011
1111111101101011
1111111101100101
1111111101011110
10010111
1111111010100110
10011010010
10000111110
1111100010100001
1111100111011000
1111101100101010
1111011100101110
1111001111001001
1111011101001100
1111100000011001
1111101011111111
1111110001011101
10101110000
100010100011
1111010
10100100110
1100100
11000100
10011101101
110111110
10001100
10111001110
10001101
1111110110101100
1111011111101100
1111100100011111
1111111110001000
1111111110010001
1111111101101100
1111111100100101
111111101
1111100000001001
1111111001000011
1111110011010000
1111111101111111
1111110010111000
1010100
110110001
1110000100
101010100
100000001111
11111111
1111110100010100
1111110010011000
1111101011111100
1111101111010101
1010100100
11000111010
1111110100101001
10011111100
1111110100111111
1111011101100010
1111010001101010
1111100110010110
1010110101
11010001
100010000
111111100
1101010100
110111011
1111110001000110
1111110111111100
1011001
1111110010100110
1111100111010100
111000001
1111011010
1111001000
10001001011
1011010011
11111
1111111000011111
1111110111111111
1111101011100001
1111111111011100
1111111100010001
11011111000
1111110100110101
11101101
1111110001011010
1111101100100010
1111110001110100
111000101
11100100
1111111001100111
1111001110100010
1111111111100001
1111101100001101
1111100001011011
1111011111110011
1111100101001110
1111011101011110
1111011101001111
1111111110101011
1011101100
101100101
10010100101
1110100111
10101010000
1111000110
1000010010
1111101110100101
1001110110
1111110011111011
1111111110010110
10101100000
10101001001
1111101011001101
1111111001101111
1111011100101000
1111111101100110
1000010
110
1111001011010000
1111111111011000
1111011101111000
101000111
1111100110011001
1111111111011001
1111101001010100
1111110100111101
1010110101
11000111110
11001110110
100110110001
100100100110
1010100100
101101100
111011101
1111110100110111
110101001
1111111010001000
10010111010
1111101100001100
1111111111011011
1111110101100110
1111000010011101
1111010100110111
1111111111011001
11010110011
111111010
1111000111000100
1111111011111100
1111100010001110
1111011001111010
1000000100
11111000
1111110111010001
1111111100100101
1111110110110000
1111111101110001
11100011111
101100010000
1000011110010
100001011001
1111110101000111
1111110110000000
1111100011100110
1111110010011101
1010100111
1001001011
1100000100
110001011
1010100
1110111101111011
1110110111101000
1111101111011100
110100110
1111110101000000
1111011011011011
1111011110101111
1110111011000101
1111110010011110
1111111010000101
110111
1111011110000101
1111110000110111
1111110111000010
1111110000100100
1111111011110011
1110000100
100100011101
1111111000110010
1111011000100000
1111000111010101
1111010011111010
1111110001000101
11001000
1010100
100001011101
10000110100
1111111101100101
1111001110111111
1111110100110110
1111000010
100111111
1111011100111011
1111010101110100
1000100110
1111101101010000
1111101111110001
1000110100
1111111000000100
1111110101000010
1
1111101111111110
11101011
1111100110011101
1111011000101111
1111111001010010
101010010
1111100011000011
1111100101001010
1111010101010100
1111010100001100
1111101100000100
1111110110010110
10101111001
1111101101000111
10110011111
1111101110111111
1010010110
11111000100
100010110
1111111110101001
1111100010011010
1111111100010000
1000001101
1001010
1100001011
1110000100
111010000
10111011101
10111100
1111110111100111
1111010111110001
1110111010010101
1111110101101110
1111101000
1111111100101111
1111010110100010
1111010010000101
1111011000100111
1111101010101110
10000100000
1000010000
100010110
101010001100
1111100100010010
1111110100001100
100000001001
11111000
11001101110
1000101000
1111111111001001
1011000101
1001011001
11001101100
1111111100001000
101000000
100011101000
1111100111101101
1111010011011110
1111010111000110
1111011001110111
101110111
10110001100
1101001110
1111011110010001
1111101010001010
1111001101011111
1111100001001101
10110001011
100101110011
1111101110100111
10111010111
10010010000
1111110101000101
110111110
100001011
10001010000
10111110101
1111101110010100
1000110000
1111111010000110
1111111010100000
1111101011001010
1111111010001111
1010010010
1111011000111110
1111000111001111
1111011111100000
111011010
1010001111
11010011010
11010000
1111100001110010
1111010101010111
1110111111001110
1111011000101001
1001100101
11010010111
110000000
110111100
1111101111010111
1111110011110110
1111111011100101
1111110101100000
1111110111110011
111011001
1111100011011000
101111111011
1111111100101101
1111101011001110
10011110
1101011
1111111110100100
1111001010001111
1111010100111010
1100100
111101001
10000000100
1111111101110111
1111111011011111
1111101100000010
1111001011110100
1110110000110001
1111110000100110
1111111010011000
1111111010101010
1111111100000100
1111110001000111
1111100101010000
111111111
11101000010
1111110100011001
1111111110101111
1111110001101101
100100000
11001110010
1111110000111000
1111011110111001
1010100100
10111111010
1111101110001111
1111001111111100
1111110111100011
101011101
1110100010
1000110100
1111110101011101
1111111110000111
1111010101111000
1110010101111010
1110101001101101
110111
10000110101
1111101111111111
1111101011011111
1111000100001000
1111101010011011
1111111101001010
1111111001000100
1010010110
10111001110
1111100010011110
1111110111101000
11011110110
1110000
1111110100111011
1111110101101110
1011011000
1111110001111001
1111111011110101
111011010
1111110100100011
1110000000
10000000
1111100011111101
1111100011011111
1110000110010110
1101111010110100
1111100011111000
1111111000000111
1111111100111011
1111110011011010
1111001111011110
1111010010001101
1111101101001101
1111101001011000
1010001011
101011101
11000011110
1111101011101100
1111010011100111
1111110010100000
1111110011100101
10011000
1111111000010001
1111100110100101
1111110110111011
1111111000101110
1000011
100100000
1101001011
10
1111001010011010
1110100001010000
1110001110101100
1110111110000001
1111111101011100
1001000111
1111110010000011
100101000
1111100111011000
1111101110000001
101000001100
1111100000011101
1111100000001111
1111110000011011
1111110111000011
1111010111101011
1110101000110111
1110111101001110
1111110010001000
11100101
1111111100011011
1001101000
10010010100
1010000111
1111111001111100
1001100000
110100
1111110001010011
1111001010011011
1110100111000000
1111011111101000
111100110
101101101
101100101110
11001001000
101001011010
10000011110
10010101111
100110111011
1111111100001101
1111101110011111
1111110101111100
11100000
1111010001000011
1111001111101001
1111100101100001
1111101000001001
11011101000
101011001
1010100
10100101111
1111111111001101
11001010110
10000011100
11101011
1111101110000001
1111100011001101
1111110010100100
1110011100
10110000011
10100001111
100100100111
10110001100
100001011001
100000000100
11110111000
10000011000
1111110101000100
10011010000
1100101
1111111001111010
1111011011110001
1111011110010101
1111010011111100
1111101110100010
100011101100
1111111100001010
1001101000
10101101
1111000
10100000100
100000111111
100101100
1111111111100100
1110000001
11100100100
11101100011
1100011111
10010111011
10110000010
10100111
1111111011000100
1000111111
101100111111
110110110000
1111111111100100
1111111010010000
11001011
1111101011001010
1111101111000000
1111111011011100
111100100
100001000
111001110
10101010100
10000010100
101000010
1010001110
100111110
110100111
100010001
10001110010
11110010010
1001101001
1111111111010001
1111100
10111001110
1011100001
11000100110
1011110
100100000
1001000110
101010001
1111110011000100
1111111100010101
111011110
111010100
10010000011
1000111110
11110110111
0
1111110100010100
1000011111
1101001111
10111101011
11101
1111110011101011
100100
1001100110
10000011
1111111100011110
100100100
1010110111
1110000000
110000110
11011000010
101001110001
1111111011011010
1101010101
1111110101110011
11011001
1111110001000001
1111111010001000
11100000
10000001
1111010101110000
1111011001010101
1111111010101101
1111110110100001
111011110
1111011010111000
1111110111100110
1111111011110010
1111101001111001
1111111010000100
1100011
11100010
1111111011001011
1111111010000001
1111100
1000000101
101111001
1000001000
100000100101
1101000110
10
1110111101
1111101010101111
1111100101011101
1110111101
1111111111000100
1111111100010110
111000
1111011111111000
1111100011010010
11000100100
1111111001110101
100111000
1111110101110010
1000100101
1111111011000011
1111110101100110
1111111110001000
1010001
1111111001011010
0
10000001
1111100010101010
1111111101110100
1111110011010101
1111111101011010
1111101101100101
1111111001110001
1111011111100110
1110001
1111101010101011
11111011111
101010010011
1111111110000001
1111111110010100
1111111110010111
1111100010101010
10110011010
11100101100
1111100110100110
1111110010101101
111010110
100100000111
10110100111
1010101
1111111010100000
1111100011111011
1111011110101011
1001100
1111011110001001
1111010010001000
1110111111100101
1111010101010110
1110111000100110
1111010000111101
10100010
1011100
1111110101011100
1111011011000000
1111000100
1100010001
100111110
111101
1111111011000001
1111111110010110
1111110101101100
1111110110010011
11001111
101010010000
10101001
1111110001110010
1111110001000101
1111110101101010
110011
101100
100111011
1100000101
1111011011110110
1111000011011011
1111001100110000
1111101111011100
1111111001001010
1111100001001110
1111101011101101
100100110110
10101100010
10000001
1111111110011111
1111111111110111
1111111110101111
11111011
101001100
1111111100110010
1101111
1001111100
100010111
1111111111111101
1101111
1111101101010001
1111100010100110
1011100011
1010111011
10011011
100111001110
10100100101
100011110100
10010110100
1111110001100101
1111100001010110
1111111100011010
1111100101001101
1111101000101011
1111101011001000
10111101001
1111111111101000
1111111011011011
1111111110111000
100001
