110111
11101101
101110
1111111101001111
1111111100100100
1111111011101101
10010111
1111111011001110
1010101
1111111100001100
1111111010111010
1
101001100
100101101
1111110110110010
1111111110001001
1111111101100001
11000011
100001
101010011
1111111111111101
1111101
1111111101111000
11100101
1111111100010001
11111010
1111111011011101
1111111010100110
1101000
110000
1111111111001010
1011010
1100000
101010111
1111111010010011
111100000
1111110110011110
1111110100001011
1111101101000011
1111100100111001
1111100101000010
1111100110101110
1111111101001101
1111001001110110
1111000101111110
1111010011001011
101001101110
1001001000100
1011110100000
1001101111100
11100111100
1111110100111001
1111111011010111
1111111010101010
11100
11100110
1111111101010010
101011010
1111111111010010
1111100111001011
1111101001101111
11010011101
1000011111
110000000011
1100000110
1111110011010001
1111011011110110
1111101110000001
1111111011010001
101010011010
110100110010
110011111111
1010000011
1111110110011100
1111100000111100
100110010101
100001111110
1101011010010
101111111100
10000001100
101111101001
11100011000
111000
10001001
100101010
1010010
101111110
1111100010010011
1111011000101110
111100111001
111111111001
111000001101
1111101111110100
1111110110001110
1111011100011011
1111100000111100
1111001011100100
1111010000011101
111110111
1111101110110011
1111110010101011
1111100100100100
1111010001011100
1111110100111011
1111101011100011
1111110110001010
10000010011
111111
1111101010110001
1110000011
1111101111101011
1111111101111100
11110000
1111
1111101010010100
1111110111110000
11111010110
1000000011111
100110010111
101011100100
11101
1111111101100001
1111100101000111
1111011011000100
1001101100
110111
1111100101010111
1111001100010101
1111110001000100
1111101110110000
1111011000011111
1111101100101010
1111100000000110
1111100101000110
1100010001
1111110101110110
110101111
10001010010
1111011010101011
1111110010011010
10001111
1111111101101001
1111110001010111
1111110001100000
111100111
10001101001
100011000
1111111011110011
1100010100
10011111
1001011100
1111111101111000
1010000010
1111101000111101
1111010111011100
1111001011000000
1111011010110011
1111100010111000
1111100101110100
1111101110000001
1111110111100011
1111101111000101
1111111010000001
1111101111101111
1111110001010110
1111101000111110
1111010101011110
1111101010110010
100111011
1111111000101001
1111111000100110
1111101100101011
10100110100
10000011111
1001000101
1111110101000110
1111110011111110
1101110010
1111111101101111
1111110101110111
1111101100100010
1111010101110111
1111010010011011
1111001011011110
1111010100111111
1111101010010111
1111110110010111
1111111010101101
1111111101000100
1111111101000001
1111101001001111
1110001011
1011100
1111010111110001
1111100100111011
1110111001010111
10100001
100010100110
11010010
1111111111101010
1110010101
1101000000
1111110011
10000101111
10100000
1011110111
1111101010001001
1111110100111100
1111100111100110
1111100100010111
1111100001100000
1111011111110111
1111011101111010
11101000
110000011
10010011
11110
1111111100011010
1111110101101000
101110001
1111101011111110
1111101010001010
11100000110
1111000010111101
1111101011110111
1000001110
11011011010
1111111010011110
10011110011
11100110000
11110100111
11001011101
1101001000
110111101
10001000
1111110111011001
1111100110000101
1111100001010010
1111101001010111
1111101110101011
1111011101100111
1111101111010100
1111111111001000
10110101
1111101101100100
10001000000
1111111000111110
1001111110
1111101000111101
11100010
1001010000
1111100110110011
10011010000
110000011110
0
1011111011
1100111001
1101011111
1011011100
101010100
100110010
1111111010001111
1111110111011101
1111111010111111
1111111100101001
1111101110011001
1111101001101010
1111010100110110
1111101100000101
1111101110011010
1111111001111111
1111110100010001
1111110110110000
1111111100110110
1111110111000100
1001010110
1111100011010010
1111111100110010
1111110101110000
1111111111001001
11000010011
1011110110111
1110111011
1101101001
110001010
111111110
1011111101
10001110100
1100011001
1111111010010011
1111111110111101
1111111001010100
11000010
1111101101011010
1111010101111110
1111011100010101
1111111101100111
111110111
1111110001000111
1111100101011100
1111011101001010
1111110110101100
111111111
1111110111100111
1111111011000001
1111111001111011
1111011001011100
1111110110100010
11001100100
1111110101010111
1111111100001100
100010100101
100011111
1100111010
1111111101111110
10111110101
110000110
110110001
1010000111
1111111011011111
1111111100110110
1111011110100000
1111011001100110
1111100110111001
11110101011
1101100001
1111110000110111
1111111011110101
1111110010000110
1111110110110010
1111101110011101
1111110101100111
1111000001110001
1111011110100101
1111110000011000
1111100101100001
1110011111
100111011110
1011010010
100111111000
10111101110
1001011001
1011101101
1011101000
11100000
1111110000010100
1000100001
100101000
1111111111100111
1111101010011100
1111010001101010
1111110101111010
101001100010
10011100001
100110010
101010011
1111111000000110
1111111110110011
1111010110
1111010000010100
1111101111000000
1111110000010011
1111001101111011
1111010111101101
10100000
1011001
100111000
101001111
1111111111010010
110010110
11110011011
1101110100
1111101001
1101100010
11010011011
1100111111
1111110110010111
1111010000010100
1110111011111010
1111110111100000
10001110000
10110101001
1010000111
1111101010100010
1010010
10001001010
11111111101
1111111011000101
1111111111101001
1111001101111010
1111000010111001
1111100110110111
1111101111001011
10011011011
11111000010
1110010011
1111111001111100
10110100011
1010001101
111010010
11001110011
10001001100
11110101100
1000001111
1111100101110000
1111001100101101
1111010100000011
1111110110101110
100000010010
11001010111
1000001100
1101110
1000000
1111111110001100
1110100001
1111110100110111
1111110000110110
1111011000101010
1110101101010011
1111101010000100
10000000001
1111111010010000
10001111011
10011011101
1111110000010010
1111110111100000
1111111100001101
1111111101000011
1111111101010011
1101100100
111001101
1111110011100101
1111010000000010
1111010100011001
1111110010110100
1110001101
100011100111
11100100110
111001010
1010111000
10001011100
1001010100
11111011110
1111110100111110
1111111011000011
1111101100101011
1111101100100101
110000
11110000001
100001011
100000101000
100110101010
1111100011000110
1111111010011100
11101101111
10101011000
11000101
1001001110
1010101
1111110100100010
1111011010100100
1111100011110010
10010011111
101010001111
100010011001
100110110100
100001001111
10110111100
101010000101
100000111110
10100000111
101101011
10011000111
1111001110111111
1111001100001001
1111101001011100
100011000
111111011
10100101110
10110100011
111001111
1111000111
11110101110
10000000101
1101111
1111110111000111
10011001
1111110001111110
1111011001100001
1111101010001111
11011101110
110000101101
111011100000
101100000011
101111101101
11001000001
10001010010
101011001100
1111111011110100
1111101111110101
1111110101101001
1111001101001100
1111100000101111
1111011101111010
11111011
1111111100100000
1111111000011110
11110001110
1111111101110101
1010000111
111010010
11001010110
100101001
1111101000000011
1111100001101001
1110111100111011
1111000100001011
1111111001110101
10111101100
100010101011
111010000111
11100000110
1011011010
1010100
1111110110011100
1110100111
1111110010110000
1111110010110001
10110101010
1111101000011000
100100110011
11001011010
1101
1111101100111011
1111101101100011
101110010111
11010011101
100111010101
11010010110
1111111101000011
1111110000111010
1111010010110110
1110111001011111
1110101011100101
1110111001001111
1111110101101100
11111011101
101001010000
101110100011
1110110000
1111101011111011
1111011010001100
1111100111110100
1111011010111011
1110111110010010
1111000000110111
1111011100111101
1111011010100011
1111101001110001
10100111001
100010101
1111110011000110
10111010001
101000000011
1111111110000110
1111111001110001
1111010
1111101101011010
1111000110001010
1110100111001010
1111010101010100
1111001011000110
1111101011110100
10111011
100000001001
11100001100
100110111001
1010010100
1111111111100011
1111100001100110
1111010011011111
1111010100111110
1110101011011000
1110100001100001
1111100110010000
1111011010010110
11110100
1111110000011110
111110110
1111110000100111
11101010
100010000
11001000100
1011100110
1111011110111101
1111001101100001
1111011101101011
1111100010110001
1111110000101000
1111111111100000
1111110110010111
1110010010
1000111110
100001011
10111100000
110011110
11011010010
10100001110
1111110101100000
1111111111010010
1111100010100001
1111100000011100
11101100010
1111110101001100
1111010111001101
1000000
1111111110001011
1111111111001101
1110011000
1111101001101101
11000010110
1101100110
1010001
1111010110010000
1111010101111010
1111111110010111
11110110
110100010
1111110111000111
1111111001000011
110100100
10000000101
10100100000
1010011000
101110110
100110001100
10101011110
111101
11111010
1111110010011111
1111111100110001
1111111000100100
1111110011011011
1111111100010101
0
10101001
1111011011000010
1111101001100100
1111011000111111
1111101000111001
1111110011001101
1111101101000110
1111101110111010
11011101
1111110011100101
1111100010110101
1111101111010001
1111101100001111
101100000
1101000000
1010010001
1110110010
1101011
10000110000
1000001
10001100010
1111100100111101
1111100101010010
1111110110011000
1111110111011111
1111111001111001
1111111010100100
100000110
1111111101110110
1001101001
1111100010000000
1111011110111111
1111010011101011
1111010101110100
11011000
1110100010
111000111
1111111001011110
1111101110111001
1111011110000011
1111101001101100
1111111100111001
1100010100
1010000
1111111011010111
10101000
1101110000
1011100110
10010101011
1111110001000101
1111110110100111
1111100100010001
111000001
10000001010
10110100
1001111
1111111010111111
10011010000
1111100010101101
1111111010100000
1111011001011100
1111101011101111
1111111000000100
101100100
1111101100101100
1000100011
10011001100
1111110001000111
1111110001100101
110110101
11000101001
1111111001100000
100100001
1001101101
100000010
1011000111
1011100
1111111000100000
100010001
1111001111010110
101101110
1111110011011100
100001101
1111111110100000
1111111101010011
1111111011000100
110001010
1111111011101011
1111011011000011
1111011100001111
1111100010000100
1111100001100100
1111111100111110
1111101010111011
1111110100101111
1111101000101101
1111100101110000
1101101010
110000001
100000100
1001000011
1111111000001110
101001
1111101101010111
1111100000010010
1000
1000110011
10010000000
1111111011010110
10
1111111010111111
101001100
1111111110101110
11000111
100000001
1001100001
100011010110
1111101100001110
1111111001000000
1111111110001100
11101011
100001011
1111110011000101
1111110100111111
101110001010
1111111001000001
1000100101
100101111110
1101111010001
1000010111100
100010011001
100101110100
10100110010
10000000
101100000101
1100101
1111111101111010
100100101
1111111101010011
