1110110111100111
1111011111000011
1110111000100000
111100001010
1111011000110101
10011000
111000001000
10000100010
10000010011
1111110000111001
1011100010101
1111110001101110
1111011000000110
1111010101010111
10010010010
1111110111011010
10011100111
1100111011001
1110001111110
1110111000011101
1100010101111
1111001001101011
111001001
1111100111010010
110001010100
10010001100
11111010110
1100111000010
1111110110110001
100110100010
