1111110101001011
100000110010
101100000101
1111100101100100
100000011010
101101111010
11001100
1111001001010010
1111101011101100
100000100111
1110010100000110
1010111010
11001101110
110000000011
1111111010100001
100000010000
1101110011
1110100101101011
1110100011000100
1010011001111
1110101101010101
100010001101
1011011000
11110101010
1111100100000010
11011101100
1111100100001110
1101010011100111
1110110100
1111100111000000
