1111111110101000
1111110111011101
101010001
1110110100010000
111000000000
1111111101011111
1111000100011101
10101110000
1011010101
100101101011
1111110111001001
1110011011011111
1000111001111
1110111101111001
1000010100011
1101001101110
1111001101010100
11101100010
1101111010000011
11110000010
110010001100
1010110111110
10010100001000
10111110
1101110000
10010000111
1110101001010110
1110110100001010
1101110001
1111100101001000
