1011101000
1111011100011110
1010101000
1111110100000101
1000100000100
1111101001101011
1111111000111000
11001000001
1110010010011110
100000111001
1111101110010000
1010001100100
1111100110111000
10001001111
1111111011101011
100010010
111011110110
110100011011
11011010111
110000001100
1101111110001111
11011110100
10001011001101
1111101110010110
1110011011101000
10110000000
1010110011
1111111100001100
11000011110
1111001010010010
