1111101000001110
1111000000110001
1111100011110111
1111100011111000
101000011100
1110000101
1111101001010111
1001100011101
1111101100110101
1111101111000100
100111011
1111110010110001
1111101111011101
1111000111101010
10010001010011
1111101110010111
111110100011
11111010100
1111100100000111
1100010001
1110111111100010
11011111100
1011101011000
1111010001011000
1111000010110001
1111111101000111
1111100000110111
1101110000100010
1001011111111
11101000011
