1111001010101010
10011011101
1111010110100000
1011000111101
1001000110111
1011000010101
1111100010000110
1101111111110101
1101110010001000
110001111101
1111010100
1110101010101101
1010111101101
1000000100000
1111001000110101
110010101011
1000001010110
1111111011111110
1111000110011000
1110011010111101
1101101011100
1111010100010000
1111001011011110
1100001100001
100110110011
1110111100000001
1100001111011
1111111111110011
1110100001100000
1000
