1111111111100101
11110100
1101111
11011011
11101111
10110110
10101011
100001001
1111111101010100
1111111011000011
101000111
11111111
1111111111100100
1101000
1111111001100100
1111111
100111101
101011111
1111111101100001
1111111100001101
1111111101010011
1111111111101101
1111111011101101
100000111
1101111
100110001
1111111100100001
100110100
1111111111000011
1111111010101001
11010010
11101111
1111111011011010
1111101100010111
1111010110110010
1111001000000101
1111011100000111
1110111001101010
1110111001001101
1110000110110100
1110010110110101
1111101001001010
1011111101
1111001100110010
1110110001111100
1110111000100101
1111010101110101
1111110010110111
1111001100110001
1111010010001011
1111001111100110
1111010100010101
101101
101000
11010101
1111111110100010
10100010
1111111011110010
1111111000111010
1111100010010111
1111100011010010
1111100000001110
1111000001011010
1110110100001110
1111001010100000
1111000011001100
1110111000001000
1110101010010100
1110100110000001
1111100000100011
1111100001111100
1111001010000010
1110110111101110
1110111111110000
1111001011110001
1111111101101001
11100011011
1111111100010111
11110
1111001100100111
1111001101001010
1111011000101100
10001001
1111111011010111
1111111110011110
1111111011110001
11010110101
1111011010101110
1111101101011010
1111101100000010
1111110000000010
1111100111101010
1111010111000011
1101010100
1011001110
1111011101110101
1111011000101011
1111000110000000
1111010110110011
1111001100000000
1110100101010110
1111001111000100
1101
100001001111
1111010101
1100001010
110101110
1111111011110011
1111110100101100
1101010011
1110000111
11011001
100100000
1111110010110110
10010101101
111000111
10000101001
11011110011
1010001101
100100110
110110101
11000110
1111110010000101
1111110010101010
1111110111110010
1111110111010111
11101100011
10010100011
10101001001
100111110100
100010011100
10110010
1111101011010110
1111111110111101
101010111
100010000000
111001001010
11111001111
100011111
1111011100000010
1111111101111010
1111111100000010
1111010111000101
1111001101110110
1111010110001000
101011101
11110100
1111001000
1101101101
110001111
1111111010000111
10011100
1111111101000010
1111111100011111
1111111000110001
100101001
10011110
11000001110
100101000
1111110010100110
100111
1111110111101000
1000001011
10111111
100010011000
1111111010100011
1111110110111011
1111011101001111
1111111
1111101001101110
1001110011
1110110011100111
1111101110011100
1111111011000111
1000001000
1011110000
1111110110110001
1111111100101100
1111111100001000
1011110001
110100111
1111111011100000
10000100
1111111011111011
1100100101
100100011101
1011001000
1010011100
10001001011
10011111011
100001010
1111111101100001
111001010011
1011000110
110000001000
1111111110111111
1111111000110101
1111010100011110
1001011100
1111010111011100
1111000000110101
1111110111101011
1111111001010111
1010011111
11110100
11010110
11001001011
100011000010
11011000111
10010110000
1111111100011111
1111111011010101
10000011010
10111110111
111011
110010001
110111100
1101000111
100000111
1110110011
1001100001
10001100101
111101100011
1111011111111110
1111101100010001
1111100000010011
1100111
1111101000000101
1111100010001011
11101010011
1100010101
1111011010
11101100101
11011110000
100010000111
110000010001
10110111010
1111110001001011
1111101001111011
1111110100011011
1111111110000011
1100000011
1111111111011001
1111111000111010
1111111010101111
1111110001011000
1111110011011100
1111111110100001
101111000110
101011111111
11101011001
1010111000
1111100110111110
1110110111
101101011011
1111100000010010
1111101101010010
10010001
1111111000010101
10010010001
10110001111
100100101111
100111000011
101111010100
10000110010
1111100010000111
1111010010100101
1111100001100001
1111111010011111
10100100001
10011111001
1010
111001100
1100010011
10100100111
1111111010100110
10001111011
100111001010
100100011011
10010110010
1111100001110011
1111110000110001
1111011000110111
1111100110101011
11010
1111111111010001
10011011101
1110001001
10101110010
10111111110
11110110001
10001010000
1111110000011011
1111001111100100
1110110101011011
1111011100000101
1111111101101100
1110111010
11101101100
1000010010
1011100011
1111010011
1111111100001001
1111100000011000
1101011000
10000010110
1111010101111001
1111110010111011
1111101100001011
1111010111000101
1111110110010010
1111110101111001
10001000001
1111111011001101
1010101101
11010001110
10100101000
110000101110
11110100000
1111111011110010
1111100011010000
1111010001001100
1111010001100000
1111111000100011
1101111111
10110110110
11011101100
10001111101
10011001001
1111111100000111
11111101011
1111100011010011
1111100000000001
1111110000011001
1111110110011101
1111111110111000
1111111011100100
1110111100110000
11101000110
1111111100110111
1110000010
1111100111011011
10101111
1010010101
1111010001
1111111111001111
1111110011010010
1111110100110100
1111110011011000
1111100000001010
1111010000010100
1111111001110011
1101101110
1
10000110000
11011011110
10111111110
100010001
100011001111
1111111011011000
1111010011010100
1111110111111101
100111110001
11011000111
1111110100111111
1111011011011110
1010110101
1111100001000000
1111110010010101
1111101111001111
1111100100001010
10001010110
11011101010
1111101000101010
1111011000011001
1111101100100011
1111100111110011
1111011010001011
1111100000100111
1111111001100101
101110011
1001110001
111100001
101010010
100001101110
1111111011101000
10111000001
1111101110100011
1111100001010011
1111111001111010
1111101100101001
1111101010001010
10111000100
1111011011111111
1111010111110110
1111101101101001
10111110010
1111010110110010
1111110110000110
10010011110
101001011
1111101101010001
1111100011000110
1111100101011010
1111111011010110
1001110111
11010001
100011011
1101111001
11010010
1111110111101001
1111111100010101
1111101111011010
1111011010010110
100001000
110001001
1111010010001001
1111100111111110
1111001111101001
1111100000101100
1001001000
1111101001011100
1111100110000100
1111111011101100
1111110010000101
1111010110100001
1111111101110010
11100100
1111101000010000
1111101010101011
1000111010
11110000001
11010100010
10001110000
10101011100
10011101000
1101101001
1111110100011000
1111101000001010
1111010110011101
1111010100011111
1111110100001110
1111101110101110
1111110001011100
1111011110101011
1111110010011101
1000100110
110111010
1111101000000000
1111100010000101
1111010110111101
1111100100110100
1111011101101010
1111101111000110
1111110000000001
1111011101101000
1111110000011100
1111110010111111
1001001
11011001101
11011100000
101111001001
100100001001
10111101110
1111101111001101
1111101001011111
1111101010011110
1111100101110101
1111011101011001
1111100111100011
1111001010011010
1111100110101110
1111110011000010
1111111000001101
1111011110111010
1111100111111100
1111111110011000
1111101111010001
1111011100001101
1111111011001111
1111000111000011
1111101101111110
1111100011111011
1111101010000001
1111111111111000
1111111111000110
10001010100
10100111101
10011000000
101110110101
1000000000110
11100000101
1111111100100101
1111101100101000
1111110010001000
1111110000000010
1111100101000001
1111110111110110
1111010100000000
1111101000110111
1111101001001011
1111111101101011
1111110101011101
1111011011100100
1111111111100000
1111011101011110
1111100010101011
1111111001110001
1111011001000111
1111111011011111
1111110101100000
1111111010111001
11001
100011001
10000010011
1000111101
1111111011111100
100000110110
11101000101
1111111011000111
1111101101010000
1111101010001100
1111101010110000
1111111111011001
11110101
1111111001101011
1111100100100101
1111010010011010
1111011111101011
1111101101010010
11011111111
1100100001
1010000111
1111011111101100
1111110110111100
1111101101001001
1111001111001110
1111101100000000
1111111101011001
1100001100
1111111001101101
1111110101111101
1111101110101100
1111111001100001
1111111001000101
1111110010010111
1111111010010000
1000110
1111110111100100
1111100001100110
1111110110101001
100001
1111111001110101
1111110010100111
1111100010100000
1111101111011101
10111100
11101
1111010110000000
11101111
1111111100101100
1111011101000011
1111101011100001
1111010100011101
1111010000000000
1111111000101101
1111101100001100
101100010
1000011010
1111110101000110
1111101000111001
1111110101110011
1111111000110010
101010101
11010011
111001111
11011001000
1000010001
1111110000110000
1111111010100011
1111100111101101
1111100110010001
1111100101100001
1111110110111110
1000011001
111001100
1111001101010100
1000011001
1011000101
1111001100000101
1111101011101011
1111110010110000
1111110101111110
1001000111
1111101101101111
100101000
1001111111
100100101
1111110101000011
110011
111111001
1110000000
10011001111
1111011110
10100111111
101000110
1001011110
1000001111
10100101100
100100000010
110111010100
10111001000
1000010110100
1111111110000110
1111001111110101
1111111100111000
1111011
100011111
1111001101110101
1101111001
1111111100110100
1111111000010011
1111110011001001
11000010
111101100
1111111100110111
1111111101111111
1111111011000110
1001110
1111110011
11011110101
10010110111
11100011001
11000000011
11001101010
11010010001
1100010111
100011100001
111001111000
110101000000
110101111011
100001001100
1000100110
1111111011011001
1111111111101100
10010100
1111000010111000
1111111111111101
11000100
1111110001110110
101000000
1111111000001011
1111101111001101
1111100011000000
1111110101000011
1111110011000101
1000101111
10111110100
101111001001
110101000110
110101000000
101101101011
1001010110
111111001
100001110111
11001010110
11000000101
1000010001100
110110111
1111101001100001
11011101000
1111100
1111111110010101
1111111110110010
1111111010101001
1111011000010001
1001010110
11100110111
1111110110110000
101011001
1111110010000110
1010101110
1000100000
1111011101
1111111111101101
1101001111
1100000100
10010001100
101010001000
111110111110
101111111101
111010001100
101100010001
10000010
1111101110101011
1011010011000
100001011111
1111010111101101
1111011111100011
10111000
1111111111101000
1111111110111001
1111011011001000
1111011111110000
1111100110101100
11110000111
100101100000
101001100101
1000001001111
101000000010
110110011010
110100101100
110011001011
101111101101
110101111110
1000101101110
1011000100110
1011100001010
1000100010011
1000000110000
1001011101011
1010010001001
110111001100
111110001000
100000010100
1111110000110000
1111101000101001
1111111100000111
101000001
1111111110000110
1111111110000111
10101011111
111111100111
1001100010101
1101101101000
1011100001101
1011101011101
1011110010011
1000001000111
1001000000111
1010000000101
101101101110
1000011101110
1001100011101
110100111011
110110001100
1000001000111
10001101100
10100001011
11010000101
11110
11010010000
10000010101
1010100
11100100
11111000
100111000
101010001
1111111100111000
1111111110010101
1111110110011011
1111110110110011
11101100111
11101110011
11100010101
101010000
10011010010
1101100110
1101001101
110001110
1111101111000100
1011110101
1111110100001010
1111110011001100
1111110110110101
100001001010
101111101001
101011101101
101100010
10110100101
1111111100011100
11110100
10011100
1111111010111100
