101011001
1111111010111111
1111111100111000
1111111110110110
1111111101001110
1111111010111100
1111111011110101
1111111011101001
1
100011000
101100
1011110
1111110100011101
1111101111101000
11110010
1111111100101000
1111111100010011
1110010
1111111011000110
100011010
1111111110010010
1111111111000010
1111111011111101
1111111011111001
11001110
11100101
1111111011000011
1111111101010111
1111111100010101
1111111110110011
10101011
11110000
1111111010011111
1111111001010111
1111100100010100
1111011011101111
1111001111000110
1110110001111000
1110100011101011
1111011101011101
1111011011011111
1111000111001000
101110
1111110010100111
1111101011110100
1111001111010111
1111010110011010
1111011001000100
1111101110101111
1111101000100011
1111101011010110
1111011001111100
101000101
11111000
1111111011010011
100100111
1111111110000001
1110000
101011101
1111100110101001
101111
1111111111011001
1110110011
1111011011100000
1111101000011111
1111101101111001
1111111000101010
1111101001001010
1111011111001000
1111111100101110
10000011100
1111111011110000
1111101110011010
1110111111001100
1111100100011100
1111101111111011
111010101100
10001001011
111000000000
11110110011
1111110111101011
11001011
10011010
1111111110000110
1111111110111100
10011100
11001100111
1111101100101101
1001010
1111111110110001
1000001110
100001001110
11000000011
1111111100000101
1111100110100001
1111100110101110
1111110101100100
1111110111011111
100110100
11100101
1111101111000000
1111100000001011
1111010011010011
1111100101001111
110011
1111100100011010
1111100101101011
1111100010010010
100110001101
1000000001
1111101001111001
1111111100111111
1111111011110100
110101011
11110010000
10011011010
100011111101
100011110000
10101001
1000101001
10110111001
1111110110000001
1111111010111100
1111110000100101
1111101111011001
1111101111110000
1111100111111110
1111101011000111
1111100111011110
1111101100010000
1111111001
110
1111111101111101
1111110111100011
1111001010
1111101101111000
1111101010111000
1111101100101000
110001
1111101011100101
1111111110101001
1111111110011101
111111101
1111110101110001
10100110010
11110001010
111001101
1000100
1111111100101010
1111101011111111
1111011001101111
1111011010000010
1111101000001100
1111110101010110
1111110000111001
1011000010
101001011
1111100101011110
1111100111101010
1111101110101001
1111101110111010
1111011100000001
1111011101011000
1111100010100010
1111011110010100
1111000100111101
1111100001110100
1111100110111111
1010111
1010010000
1111111010101100
10110100
100001110
101001100100
1111101011001101
1111100011100000
1111110100010110
1111111011011111
111
110100
1001000
1110001001
1111001111
1110101000
1111100011
100010111
1111110111110000
1111101100110001
1111011111101111
1111111000011001
1111010110010101
1111010010101101
1111010111110111
1110111101001000
1111110110001010
1111111101010010
1111111010010110
101010011010
1100111010
1100100001
1111111111110101
1111111000001011
1111111110001110
1111111000110101
1111110011100001
1111110100111100
1111101011101001
1111101100000111
100011011
1011110000
11001000001
10110001110
1011101101
1000101100
1111101110001101
1111111110111010
1111111111011000
1111110110111011
1111100100110001
1111101101011000
1111010101001110
1111011010011111
1111111101010111
11111101
1111100000100100
1111111100000000
100010100000
1111111100100100
10010001111
1111111001110111
1111111111011000
1111101110110101
1111101001010100
1111011101011011
1111011100001111
1111011100001101
1111101001010110
1111111110101100
10101001100
100011100100
11100000
1111101101101100
1111110101101111
1111110100101111
1111110010000001
1111101110101100
1111100001000100
1111110011011000
1111100111000011
1111001111111110
1111100000001100
101001
10000101100
100111010110
1111110001000111
10111011111
11011101101
1100
1111110001001000
1111101111111101
1111100111001110
1111100011110000
1111100111010100
1111011101101111
1111101111100101
1000011001
101010001011
11101101111
10010001
1111101110101000
1111101000100001
1111100111110111
1111110111100010
1111101000011111
1111110011010111
1111101001010010
1111110100001101
1111011101111101
1111110111000001
100000101010
1111010000
100101010100
1111110000111110
1011101011
1111110001011010
1010000
11110101
1111110001101111
1111101001101000
1111101101110110
1111101010000100
1111110110101100
1111110001011100
100100011111
100010100011
1101010100
1111111100110011
1111110010111101
1111101101101111
1110011
101000101
1111111001110111
1111110001110000
1111110111111011
1111101001100111
1010110100
10011010
1001111100
10100100101
1111101010111110
1100101110
10101010010
111111110
1111111010010100
1111111010000110
1111111001100001
1111101110100111
1111110100010001
1111101101100010
110100111
1001010001
1111101100
1010010110
11010001010
10001100111
1101000011
1110101001
1010111100
1111111001
1111111011000111
10100001000
1111111111110001
1111010100111111
101101111
1111111000001011
1101100111
10001000110
1011001111
10101100101
1111101101010000
11011011001
1111110110111101
1111111110011011
1111111111000000
1111111010111010
1111111010101011
1111111001011110
1111111011001110
1110001001
1000001111
100110000110
101010000101
11101011001
10010000110
11010010101
1111110111110101
1111110110111100
1000010101
1101100100
1111110100101100
1111011110001110
10111011011
1111111101001001
100000001010
1111111001111000
1111100110000011
11001101001
11001111101
10001101110
1111101110111101
11011011010
1111111010100000
111111101
11111110
1111110010000101
1011101
11000000001
110010110100
1001101010111
110011001010
100011101010
1111101000
10011111101
1111111110110110
110111110
10000010000
1111111000100111
1111011111010011
110100000
1111111111000101
1111011000111101
1111100100011100
1111100010111001
1111110000110011
100110000000
1100011001
101001
10010010
1101010110
1111110101111011
1000011000
11101010
1111101100110111
1111110000011101
10110010001
11111010101
110110011111
111110011001
100010110110
11011101011
10011101000
110001011
1111111101000101
1111111101011001
1111111000001101
1111111110100100
101110100
1111111110110011
101011001
1111011110010011
1111110100101110
1011001011
1111110111110011
11100101000
1111111100010100
1001011011
1111110111011000
1111101000100110
1111110001110001
1111100000101011
1111101011110000
1111110110101000
1111111101011001
1011000011
101001001011
1000011001100
100000001011
100001100101
1110100010
1111110001111111
1111101010001111
1111111111110101
1111011111
1000011111
1111111110100000
1111110100100101
1000000011
1111011100010000
11110111100
1101010
1111110010001000
101100101
1111110101001110
1111100111001110
1111101101011111
1111110000110000
1111101010011111
1111100111000101
1111100110001100
1111100110011010
1111110010100100
110101100
1110010110
1100000000
11001111
1111111110101011
101111111
1111111101111101
1111101100110111
0
1010110110
1111101110001110
11010110
1110101110010000
1111101001111001
1111000011111001
1111111011001010
11011110111
10100001010
11111001
1111010011010110
1111011000100100
1111011100011010
1111110100101110
1111100001010000
1111011010100011
1111100100100101
1111011101110111
1111011101111111
111100100
10110101101
110010110
1111110011001110
1111110100011111
1111110011010001
1111111111101111
1111101101100000
1111101011000010
1001011000
1111111010100011
1000101101
10100111101
100001100
1111011101100011
11010111111
11101101110
11011110010
111100001
1111100010011011
1111110001010101
1111110100101011
1111110010101100
1111101111001000
1111110010000111
101100101
1111101010000110
1111010011011110
1111101011011010
111010001
1111110100101111
1111110111010000
1111111000010010
1111111
1000001
1111110100001110
1111110010101100
1111101110110110
1111111101010000
1111010000101011
11000111011
10111110001
11010100011
1111110100010011
10100001101
1101110101
1110100010
1111111001001101
1111110111001100
1111110110011000
110010010
10110101
1001110
1111100110010101
1111011101100101
1111011101001010
1111100111110100
100100110
1111000
1010011001
1111111101110011
1111110100100001
1011000011
10011111
1101110
1111011110111101
1111100001011111
1111000010110001
11111001010
1111111101111111
101000011111
1111111
1111110110100101
1111110011010100
1001010000
1000101111
1111111010111100
100001
10110011
100010
11010111
1111110001011001
1111101100101101
1111101111010110
1111111001001011
11000010010
111001101
10000000110
1011100
1001110000
10000010100
1111111101000001
1111101001000110
1111110110111011
1111011110000110
1111100000010000
10000110110
10001010000
1100111110
1111111111101011
100001100010
1111111100110000
1111101001111101
1111111110010101
101110110
101000101
1111110110001101
1111101100110001
1111111111011000
1111111101001000
1111111011100101
1111111010111000
1111111101110010
1000111
1111111100011011
10010111000
1101100
10001111111
100000100
1111110100111110
1111100010101011
1111011010111110
1111100101110100
1010101100
110010011
1111110110111001
110111110
1111111101111100
111101010
1111111110010110
100111010
1111111111000011
1111110010010010
1111110011111101
1111101011000110
1111110000110010
1111111110111011
1111111000110100
1111111111010100
1111110111111100
1111111011111010
1100010
101010011
10100011
1111111111111011
1111000111
1111111000000000
101100101
1111111001101100
1111101111000101
1111101100000010
1111011001011101
1111100001100101
1111100110011110
101001101
11001010
100101110
1101000
1100001001
1111110101111011
1111101100101000
1111100101000100
1111110110010111
1111110001001101
1011011100
1111111111011011
10011000000
1001101011
1111111010101011
110001000
10010010
1111110101011010
1111111110100100
1001000000
101111010
1111111010011110
1111110101011110
1111000111010100
1110101010001100
1111101010110001
1111110100001011
100101101011
1111111101000010
10111001
101101
101101000001
111001110011
10110011010
1110011101
11010011
1100101
1111111100000101
111110010
1001100010
1111110101011010
1111011100011100
1111101111110100
1111110011001000
1111100010000110
1111101011011101
11100000
1111100111010011
1111111011010101
1010000111
110101001
1111001111110001
1111000100000010
1111101100101000
1111100100100011
1101100110
101011110
1111111010110111
100111101
10001100010
101101110111
101001001111
101010011010
101100101
11110111100
1001010011110
1011100110000
110101101100
11001110010
10011001111
10010001101
1110000010
1111101111000000
1111101010101000
1111001111011111
1111111011111010
111011010100
100111110100
11110110001
1111110110100101
1111101111100001
1010000011
1001111101
1111101000100111
1111111010111000
111001
1111111100101010
11001100
1000110000
1111010001100100
10110101100
10000110001
110111101110
1000101100100
1100100100010
1011101100101
10111011101
1111101001111100
11010011110
101000010101
11100000001
100011101111
10011110101
11001111001
110011010101
1110110110
1111110000001010
100001000011
100100000110
1111110101001100
1100101111
1111111110011101
1111111111011000
10100001
110111
111011
1101110
10001111
101011011111
1111110101101011
1111111101111000
1101110101
110011000010
1000011010111
1000001000
111000001
1011110001010
100011010010
1111111010110001
11111101110
1001011100011
100101100001
10011101000
1111101010100100
100111010
10101000111
100011110100
1011101
1111111101100001
10101110
1111111111101101
