1111111100100100
1111111100110000
11110
1111111011101100
1111111101101010
1111111111110110
100110011
101111
1111111111011100
10100010
1111111101001111
1111111011101101
1111111100111011
100001001
1111111110111111
1111111100000000
1111111010111111
10110110
1111111100100001
1111111100010000
1111111100110000
10111111
1111111101110101
100011000
1111111111001000
1111111011101111
1111111110101011
1111111110010011
1111111011110001
1000110
100001001
111000
1111111111001010
1111110100101001
1111110001101000
1111111000010100
1111101101110010
1111011010110000
1111011111011001
1111001000101100
1110110011110001
1111010100001100
1111110010001010
1111001101000011
1111000110010001
1111001000010101
1111100011100101
1111011000101010
1111011011001111
1111010101110000
1111011001011010
1111011000011101
10011111
1111111110001011
1111111101010101
1000000
1111111110110010
1100000
1111111010010000
1111100110011101
1111011110110111
1111110111000011
1111110001000101
1111110010111110
1111011001000010
1110111011100101
1110101001011101
1101111100001101
1101111110001011
1110110000111101
1110110010011001
1110110100111101
1110011011001110
1110100011001001
1110100110101010
1111010011001010
1111000110110001
1111001101111100
1111010101000011
1111100000010010
1111101100100000
1111101101100110
11101010
1111111011100001
1111111011001001
100011011
11000000
1111011111110101
1111011110101100
1111111001010001
1111010001100111
1111001000101011
1111000011000001
1110111001100001
1111010010101010
1111011011111011
1110101101001101
1101110010000111
1110010000001110
1110000110111011
1110000011011101
1110110010111111
1110111100010110
1111010110001111
1011001111
1011000001
110000001
1111110101110011
1011100011
1111110101000010
1111111000001001
11101101
100100101
11111011
1111111001000101
110011100
11001001111
101011001111
100001111000
11010101011
1111110001110001
1111011101110111
1111001111110101
1111010001101101
1111010100111100
1111001011010000
1110011010101101
1101111010100001
1110010101110001
1110110100111101
1111010100001101
1111000000100010
1111011011100010
1001001010
1111111100100011
1111111011000001
1111111111011100
101011011
1111011111011001
1111111101101101
1111111111001011
1111111110001111
1111011101011001
1111110001110011
1111100000100111
10101111
1111111100001100
1111110101011000
10100000100
10100011010
11111110011
11001100000
1100110
1111011111011100
1111101101010101
1111101010101110
1111111000010001
10000010000
1111110011111110
1111000111111101
1111010011000111
1111010101110000
1111110111100101
1111111010110011
10111000101
1010100
1111011111001100
11001001000
10001011
1111110000011011
1101000110
1111110101100011
110101101
10100010110
1111100011001011
1111111000110010
1010101001
11000010110
1111111100101001
1111101011110010
1111101110111011
1111111000010000
1111110001101111
1111101111111010
1001111110
11000111010
11110110
1111101110011010
1111111110000000
10000110000
1101011110
1111111111101110
11000001000
1111100100111101
11100011
10001010110
1111111010001011
1110110010
10100111100
11110001100
111011010
1001000
100000001
1111111100110011
1100000111
111111000
101000010
1111110010100010
1111101111011101
1111111101010000
1111011000111001
1111011111100101
1111111100101100
1111001011
1111110010000011
11000
101000111
111000
1111110101100000
11100011
10000
1111101111010011
1001010001
110000011
1111110011100100
1111001101
110001011
1111110011110000
111110
1000111000
11110001
1010101000
1100100101
10000
110000100
1001000000
1111110011000001
1111001110110010
1111101010000000
1111111000011101
1111100100000011
100100110
110000010
1111111000010100
1111111100010001
10000111111
100001100
1000100
1111111100011101
1100010001
1111101011001101
1111011000011011
10010000
1000110000
1111101010001100
1111100110101000
1111111001111100
111100011
1111110001101101
1111111010001000
1100101011
1111111010101011
101110101
1111010000
1111111110010100
1111001110101001
1111110101011110
1111111000101101
10010010111
1000111110
1010010111
1111101111100100
1101100011
10001001001
110010010
1111111110100111
1111111010011000
1111110110000010
1111011111111001
100000011010
1010000101
1111110100000001
1111110010111011
10010011
10011000011
111000100
11001101000
1111110101011011
1111111011101000
1111111111101000
11000010
1111111011001111
1111111101001111
1111010100000111
1111011100001100
1101101010
1001011110
1111111100001001
1111110111001111
1111111110100011
10100000
1000010000
1111111011100111
1111111001000000
1111110110111010
10010101001
1111010010100100
1101101111
11011110011
1111010101000110
1111110000000111
111010011
1111101011001001
1100100111
100010100
1111111101101000
11111101
111100010
1110110101
11011110
1100110100
1111010110011110
1111101000000111
11001111001
100000101100
111111101
1111111010001001
100100101
1011111001
1100111
1111111010101110
1111101111011100
1110111101110111
1110010
1111011110101101
1111100101111110
10000010111
1000001001110
1111111110011000
10110010101
1111101100010101
1111101000100111
1111101001011100
1111110000001110
1001110011
1111111010010010
1111011001
10101111101
1000011010
1111111000101101
1111101101111010
110011000101
110110011101
1111100000
101110010
10110001101
1101010011
11001111111
1000110000
1111100011000111
1111110001011100
1101010
1111100001001001
1111011100010011
1111111000011101
110001101110
1111111111101110
100010110010
11110111000
1111110100010010
1111111100111100
11101111110
1011101100
111111110
10010001001
1110010010
1111111001011111
1111111000111001
110
111100000000
101011000001
1110111011
110011110
111101001
11111100010
10100111100
1001101101
1111110001001101
1111111000011101
1011011101
1111011110010111
1111011111100110
1111101010110001
101001101110
1111111100101110
11110110101
10010100111
1011010011
1111110111101111
1100010000
110100001
1110000100
1011011000
10011011
1111111110101100
101000100
10000110000
110010110110
101101101101
1010001001
10101001001
10100010100
11001101001
1100010110
1101011001
1111111110110001
1111110011001000
1111010100
1111001001000100
1111100000011100
1111111101110010
11101100
1111101010001111
100100100101
1011111001
1111101111111011
1111101110101010
101011000
1110110
1001011
1100001011
1111111101101100
1111110101100001
100110000
100000101010
101011001000
11111010110
10110001100
100010001000
11100010010
10010100001
10001100011
101011101111
1001100110
1111100011100101
1111110100110100
1111011011110100
10111010100
11000101010
1111111110110001
1111011110011001
11101000111
100011110101
1111101100110011
1111111100100001
11101000
1101111011
1111111111110001
1111101000010100
1111010011110111
1111110001000001
1101011011
11101010011
11111000011
10110100110
1101100100
11010010001
10100100011
100101001110
11010100000
1111111110010101
1111100110101000
1111101110010110
1111001010000101
1111001001110101
11101010011
1111111011110011
1111111010110111
1111100101001101
100100100100
100110101111
1000011
1111111000010101
1111101111001011
1111101101011110
1111011100010011
1111000000010111
1111000011010110
1111011010011011
1111101111101110
1111111001010111
1111111110110110
101000010
1111111111101101
100010101
1111100000000011
1111010101000010
1111100111011100
1111011111001100
1111010111110100
1111011111010101
11100100101
1111010000000011
10010010110
10000011111
1111110001000100
1111011000110110
11101001100
10010010011
1111010110110000
1111011110001001
1111100000100010
1111010100010000
1111000101110000
1111001001010000
1111101000111001
1111011100111111
1111011111010000
1111101110111001
1111100010011111
1111101001111101
1111010011101100
1110111101101001
1110111110101000
1110011011100100
1110111001000111
1110100011111010
1110010001101100
1111001001000000
10110001
100011011101
100111011000
1111101101010101
1110010001
1111100000101001
11011001110
10101101
1111001000111111
1111011100011011
1111100101010011
1111011101101000
1111010001101011
1111011000101010
1111101110101000
1111001100100001
1111001111000011
1111011110001110
1111010110111011
1111100001101110
1111000110010111
1111001111111010
1110110111111000
1111000110101111
1110111110111101
1110011111010011
1101110010110011
1110111011100111
1111101101001001
100011001011
10011110110
1111111101110010
1111111010001111
1111011010110000
1111011101101110
1111011011101011
1111101000101000
1111011011011010
1111110010110000
111000101
1111101111110111
1111111100100010
1111110111011111
1111100010000110
1111011100011110
1111010000010110
1111010010010011
1111101011100001
1111011001101110
1111010011110001
1110111111000101
1110111010101001
1111011110000100
1111101000001110
1110101100010011
1111011011110100
1111110100100110
1111101101110011
1111100011011011
1111111110010110
1111110001110101
1111001001011111
1111000110111010
1111100001010110
100000101011
1111011101110001
1111110010111011
11110111101
1110111110
1010100011
1111110001110010
1111011101010100
1111011101110000
1111000001011011
1111100101010110
1111110010101000
1111110001111100
1111110100111110
1010101100
1111101000011100
1111111100001110
1111110110100110
1111100110000111
10000011110
1111110111101110
1111010110000101
101011000
1111111101011110
10101100
1110101100000101
1111001001000110
1111100110100011
1111101111100101
1111010100
11001111110
11000111000
1010110011
10000111100
1111101111011011
1111110011010011
1111101100011010
1111011110110011
1111101111001000
100101000
11111101
1111111000101001
1111111111111110
1111110100010100
1111101100010000
10111011000
1111111110111001
1111110011111010
1111101101001110
11000100
100111000
100100010
1111111110000100
1111000101101010
1111011100010111
1111101111101111
1111100101010110
1100101100
1011001011
100001100
10001110101
101101110
1111111100100101
1111111110111000
1111111000000110
1111110111011101
1111101100110110
1111111000011100
1111111010010101
1111110101011011
1010001001
1111100100010001
1111111011010000
101010000101
10001011001
100000111110
100000110110
101001101
100100011
1111111010100010
1111111010100110
1000100111
1111110010110000
1100111
10011110000
1111000100
11001000110
11101010
10111011
1111111111100001
1111101101101111
1111100111011110
1111111010010111
1111111010111100
1111110100110101
1111111001001110
10001010110
1010100
10000101001
1010011110
10010111
101110011
11101110010
1111110001101001
1100101
10010000000
1111111010101011
100100010
100110100
1111110100001010
1011110100
100000110000
1111111011011110
1111111001100011
1001001001
100110101
10010010
111000001
10100100
1111100010101110
1111100111111000
1111110101111100
1111110110001110
1111111011010111
11001110000
10010010100
100111111
1111111101001011
1000001100
1111111010111110
100101000
1111111011110101
10100011001
1111110100100001
1111111110011011
11011100
11110101
101001111
1011011011
100111010101
1001010100
1010111010
1111111000100111
1111101011100010
1111111001100111
1111100001000110
1111010000111111
1111100011000100
1111001011111100
1110110100011100
1111001000100110
1111011101101011
1111110110011001
1111100100010000
1111010101111101
1110111001111010
1111001010000001
1111001101011101
1111101010110111
11100100010
1111101111101100
1111111100010011
1111111100010011
10000010
1111111110101001
11101101
1111111100010110
10011011
100000100001
1111100010001110
1111101111010110
1111100011101111
1111101111000101
1111111100111000
1111100001111111
1111011101000110
1111101111010000
1110111010100110
1111000110001101
1111110110001010
1101111000
100011011
10101110011
101100101111
100001100011
10001111100
101001010001
1111111110101111
10111011
11000100
11011
