10000101001
110011011010
110111011011
1100110110
1111100110000100
1111011010110001
1110111011100001
1111010001100111
101111100100
10100011100
11110101100
1111101100101100
1001110100
11110011100
1110110111011100
1111100011001001
1111001101011100
1110110011101111
1111101111011100
111001000
101011100010
1111101001011110
1101010100000000
10111001010
110010010111
1111100101111001
1111110110110001
1111011000110
1110100011110010
101100101010
