1110110010011111
1000000100
100000010
1111110111000100
100101111001
1000000010
1000011011000
1111011100000100
111001101101
10010010000
1111111001110111
1110100100100100
1111100000010010
1110100100110110
1111001011110
1111010110100011
1000110000
1101110001010
1111001111101100
1111110111110111
10110001001100
1111010100010000
1111010101111100
1111011010001000
1001110101101
10001000011
1111010010100010
1101111011001011
10111001011
1010101010001
