1110011101111
1000000111
110011011
1111110111011010
1111101010101111
1111001110
1111111010010000
111001100110
10001110111
1111001011000111
1101001100011111
111010100111
1111010001100100
1110111001001
1110100010010001
11011111010
1111011110001110
1111000101010010
10011100101
11100001
1100100000011111
1111010000111000
1111111101100101
11011011111
1111010000000100
1110101111000100
1111101110000111
1110100111111100
1111100000000111
1111010110101011
