1111110110011001
101001010011
1111111011101
1111001001000010
110101000000
1111010101010010
1111100100100101
1111010110000110
110010011110
1111010110000010
1111100110100000
1111111001001110
1110011111000111
1111010110010111
101111000010
1010101111011
101011101000
1001010010110
1101010010110
11110010100
101010110001
1001001001000
1111010110
1110111011011110
1110101100010011
1000110110011
1110110011010001
1110111110000000
101111000001
110010100110
