1111110101001011
1110110001111100
1111111001110010
10011101111
1110000110001110
100010110111
1110011010111111
10101110100
1011001010101
101001001110
1110011001010100
1001010000110
1101011001110
1111011100100111
1110111111101110
1101111101110111
111111011001
1000000000100
100100000
111110110110
10111000011
11010011101
1100110001001
1111110111100
101111100011
1111101101000010
1111000101111101
1101111001010110
1100001101010
10000111001
