10010
1000010
10100001
10001010
1111111011101111
1110001
11011101
1111111111100101
10001010
1111111010111100
1111111011011110
1101000
111110
101001111
1111111000011100
10100010
100101111
101010000
1111111111110101
10111
1111111011100111
1111111111000110
10111
100011000
1111111100111100
1111111110011111
1111111100000110
1111111101010111
1111111111111101
10110101
1111111110110000
1111111110000100
100110100
1111111110101010
1111110011000111
1111110001010110
1111110000000010
1111110101110111
110011000
1111101011011001
1111100111010101
1111011111001001
1111100011110001
1111000001101001
1110110110010111
1111001011101010
11110101
100011100010
10001000110
10010111110
10011111
10011011011
10001010
1011001
11010101
100100101
1111111111000110
1111111111101001
1111111101010011
1111110100111101
1111110011010100
1111011101111101
1111111101000000
10100011111
110011111
101010000
1111111110010101
1111110101101100
1111010000101000
1111011000000010
1111101000001000
1111101101100011
1111100000011011
1111100011010101
1111100000010110
1110001000
1111110100011010
111000
1111111010110000
1111111100010011
110101111
1111110011110100
1111111100011100
1111111110000010
100101100
100000100
1111111100111101
1111110001011100
1111100111110110
11001011101
101001010001
101010010000
10110000101
100001111111
10110111001
100011100000
1111111000001101
1111101100011101
1111100000001011
1111101000010011
1111110000001000
1111110101010101
1111110101000010
110100110
1000000000
1111111001100110
10111
1111111100011100
1111110111001001
1111100101
1111101101001110
1111111101111110
1111111101111110
111100011
10111001010
1111111011010011
1111110000100011
1111111101000101
10000100001
101001100000
1111111000010001
1111111110111101
1111010100001001
1111001100110111
1111011001011100
1111011101001110
1111011101001110
1111100010010101
1111111110001001
110001001
1111111101100010
10101000
1100011000
10100000100
1111111111010010
110110101
1111111001000111
1111111010010001
1111001100110100
10010001001
1111111101100000
1111111111011000
1111101101010011
1000111010
1011001001
1111111011101100
1100100110
1000110010
1111101101011111
1111110000001000
1111100111000001
1111010000101010
1111000011100001
1111011110100011
1111110010110001
1111110100110000
1011101
11101100001
11011100110
10001101101
1111111110101001
110000000
1010010000
11011110
1111101011010110
1111101010011001
1111010101110010
1000101011
1111111100100010
1111111110001001
10100000101
10000000
1111101110010000
10011001
1010011111
110011111
1111110100111101
1111110001000111
1111100001010010
1111001110101101
1111011101001001
1111100101011011
1111110101011110
101000110
1111110000110000
1111111001010110
1111111000001000
1111111000111110
101001101
1111111100011100
1111111001011010
110100101
1111101000100100
1111111010001000
1111111001100000
1111100111110011
1111111101100001
1111010111011110
1111100101001001
1111111010001100
1111111100001010
1111111101000001
11011111
1111110110011101
1111110010011111
1111011011010111
1111011111101110
1111110000101010
1111100001001010
1111111100001110
1111111001110100
1111110010110111
1111101010000011
110010
1111110101011101
1111110001101101
1001000
11101001
1000000010
1100000000
11011101100
1111110010001101
1111101001110101
1111110001000100
11110111101
1111111011000101
11101001101
1111111101001110
1111001111101011
1111101011100001
110001011
1111100110101111
1111100000101000
1111011001001110
1111100100110111
1111110000101110
1111101101001000
1111110110010100
1111101011111000
1111100100010011
1111100011100100
1111101100000110
1111100110010111
1111110100110010
1111111101100110
1111111100111101
100010110
1011101101
10111000
1111111100100000
1111111010101010
1111011001011011
1111111001010011
1111111001001111
11110111011
1111101010000110
1111110110111101
1111110110010011
1111110010101001
1111110110100101
1111100110000100
1111100000001010
1111100100100000
1111011010100011
1111100010010000
1111101010110011
1111101000110100
1111010101010111
1111011010100001
1111100001110101
1111101010101001
1111111100100000
101001010
1111110111111110
1111111110010101
110011011
1111110111101101
1111011001010101
1111011101011001
1111111011100001
10011
111011011
100010011100
1000000011
11100001011
1111111101000000
1111110111111000
11100000
1111110011100100
1111100111001011
1111101101111000
1111101100100100
1111101110000100
1111110001101110
1111100000100001
1111011000111111
1111011110110011
1110010100
1000
1010101011
1110110
1011101
11110101110
1111110001100000
1111101001100100
1111011010001100
1111001010111001
1111111010101001
1111111010111010
101010110
1111010010111011
10111001100
1111110100011111
1111111011100010
1111110001010010
1010111011
1000010010
110101001
10111110
1111110110001011
110000000
1111110010010011
1111010101001001
1111010001101101
1111110011011011
1111110001110100
1111111010000111
1111111111111000
1111101011101101
1111111100001100
1111100100111110
1111110010
1110111110111101
1111010100011001
1111111000011111
1111101010000111
1111111011101100
1011100110
1111110110001001
10101101111
1111111011101100
111110010
1100011111
1011110111
1111111100101000
111101011
10000010011
11011100010
10101101000
1111111111100101
1111010101110111
1111010110011010
1111101110010011
1111110001110110
1111110011110001
1111101110010001
1111110010100010
1111101111011101
1111101100100011
1111101001111000
1111001100110110
1111010100110010
1111011011000001
1111010110010111
1111111111111000
1111110111111100
1111101010110010
1111101001100101
100111100010
1101011110
10000101111
100111101000
10011110110
10101010010
100110101101
110011100111
10100001111
1111101011001100
1111001110101111
1111010111010110
1111010011010010
1111111100001001
1100011000
101110011
1111110110100101
1111101100011000
1111100111111101
11010111
1111011110111010
1110111111011001
1111000100100000
1111100000001011
11100100010
1110111
1111011001111110
1111101101111001
10001101010
1111010000
1001000110
100010011101
100000010001
110100100000
110011100110
101100110100
11001000011
1111111011011001
1111011000110111
1111011110101000
1111110001000111
100101000
111100001
1010011101
10001001100
1111110100010111
1111111101101010
1111011000001110
1111010111100001
1111010011101000
1111001001001000
1111111001100101
11100010001
10111
11101101100
1111110010101011
1110
1111111011111001
1111111001101011
11000011100
100000000100
110101101001
110010001110
101010100011
10110110010
1111111101101110
1111101011011101
1111011111100000
11101110
110001011
1111111100000000
1101101000
111100010
1111111110010100
11010001000
1000000001
1111101000010101
1111111111101110
1001101100
10010000110
10001000010
1111110011010110
11000010101
1111101001001011
101011
101110010
1111111110100111
11001000110
11011111010
100111110110
11000011101
10001110100
1111110101100111
1111100111000001
1111111011011011
11011100
10001110001
10011010000
11000000100
10011101111
11101000011
100110101
10101100101
1000110111
1111001
11100100010
1100011111
111011111000
111111
1111100110111001
1111111011
1111011110100011
1111111000000101
11001100000
10010110010
10101000011
11111111010
11000011011
11001110100
1111111000100100
1111010100110010
1111100110100101
10110
1011110110
10101100111
10100100000
100001101001
10001100110
10110001011
10111010010
11001010011
11100111011
1110000110
11010100
1111110000111000
1111000011
1111101101001000
1111110101000111
1111101000110100
1111110101011101
10000011010
1111111111001010
1111111100010000
10001100001
100100010110
11000011001
10010110
1111101011011110
1111100101101001
1111100101100111
1111101101110010
1111111101101000
101000101100
10101001000
11010010000
10110111001
10011010010
10001111110
1111110011011100
1111110010
100001000111
10101100001
11011010
1111100111100000
100110
1111101111010110
1111101010011111
1110101010
10101100100
1111111101111010
1011100111
10001001100
10001101111
10010000101
10110101
1111111010000011
1111100010111100
1111010101011010
1111011010011100
1111101111001000
110111011
1001110010
1111111110101011
1111111010111011
10010011110
1010110000
111010001
1111110101001010
1111011110000110
1111110001010001
1111110001111111
1111100100010000
1011
11010001
100100100
10000011001
10000011001
1010000010
10100110010
100100000001
1111111001110101
11101101
1111111011001011
1111110000010010
1111100000101110
1110111110100011
1110111010010011
1111011101101101
10001110
101010010
1001101110
1111111110101111
1111111001101010
100001100
10010001111
110110001
101011110
1111111001000000
1111101101000010
1111110000100101
11101101
1111111011100111
1111111010011010
11001100111
10011111000
10000010010
111110110
1001110110
1111110001110101
1111101100110010
1111100011101001
1111101100000111
1111110010110010
1111100000010100
1111001011100100
1111110011110000
1111111000010001
10100110
11000000
1111111010000101
1111110000011101
101100010
100010110111
10100000110
100010
1111100101100010
1111011010100100
1111111001011110
1100011
100101101
11011011
10001110010
111110011
1111111001111111
1101110010
1100011110
1111101111100011
1111110011101100
10000000100
100010100
111101
1111111010111011
1111110000111001
1001100101
1111111011000001
1111101101011000
1111110111001000
1100011111
1111101111101101
1111011111
10000111110
1111110000010000
100011001
1111001111100100
1111110001110011
1111101111010111
11010001
11011110
1001000001
1111100111001110
1111110111100111
1010000110
1001000111
10011000101
100111011
1011111111
1111101000
1010010100
1111101010000011
1111101010010011
1111101100000001
1111110101110100
1111101011111011
1111110110011111
10000110110
100100101000
1111111111011011
1011101011
100011010
1111011001101101
1111111000011110
1111101011000001
1111101000001110
1111111100000000
100010101
1111111110111110
1111110011110000
1111011101110100
10101101110
11000000010
11001110111
101011000101
100100101100
11110101110
1010011001
100000000
1111101111000101
1111010010110010
1111011001000111
1111111110111101
1111111100110001
1111100000000100
11011000
101000001
1111101110110010
1111110101111000
10101100
1111101001011101
1111100100111101
1000001111
1111111011010100
11101000
1111111010100001
11110011
1110111000
1111111000111111
1111001111100010
1111001110111010
1011001000
1111110001010011
1111000001011011
1110011110010111
1110111101000101
1111010100111110
1110111100001001
1110111100000110
1111010010111111
1000001000
1111110110101101
1111001111100101
1111100111110100
1111001100100011
1111001010000010
1111001010100111
1111001111100011
1111001011110110
1110111111110001
111000101
1111111110010011
1111111010111101
110100
100001110
1111111011111010
100001100
1111111010001101
1111011100000111
1111000111010101
1110100111001110
1110001110110100
1111100111010010
1111101000011001
1111011101000011
1111100100000001
1111101100101110
1111100000010001
1111010110000110
1110111111110011
1110110101101010
1110010110011001
1110011111100110
1110011100110010
1110101001001101
1111000001111001
1111011001111011
11101001111
1111111010011111
1111111011001011
1111111100110010
1111111100100010
1111111101110101
1111111011001000
11111010
1111111010110010
1111111000110111
1111011111101111
1111011000111101
1111010100010011
1111010000010001
1111001100011101
1110111111000010
1111000000101110
1111001110000111
1110110001001110
1110110111001000
1111001110011111
1111101001010101
1111001110111001
1111010110100011
1001111101
10011111111
1101001010
11001111011
1111111111110101
1001110
100101
1111111111101010
