11011011
1111111111011010
1111111111001101
101000001
1111111101011000
1011000
1111111100101011
1111111110011101
1111111110100100
1111111111000000
1111111101011100
1010000
1010110
1000100011
1111111110000110
10001111
1111111110011101
1111111011010111
1111111101000101
1111111010100010
1111111100000000
100111001
1
10110011
1000100
100011010
101001111
1111111011000101
1111111101100111
1111111
1110010
11000010
1111111100011011
1111111110111011
10101111100
10110010011
11011010011
110111010110
101110101000
1101011000
1100000010
1111111010011011
1111110110010101
1111010111011100
1111011010101011
1100011
101110101001
101011110010
100111010101
100101100110
11101000100
10111110100
1111111111101001
1111111101010010
1111111010101100
10111001
1111111010111100
10100011
10010101
1111101110101111
1111111001000110
10100111100
101101010
10111001100
1001010111001
1001000110000
1010011100111
1010001110101
1101100101101
1101010110001
111011110111
100001110001
110000000
1111101010110000
1111101100010111
101110100110
1111101
1011111101000
111111110111
111010101000
110000011110
10000110110
1011011
1111111111111111
1111111111101001
1101011
1110010001
111011
1111110011001011
100000011000
101000111110
100110110100
10100101001
1101000100000
10001000111001
1100001110001
1000000000010
110101111010
110000110001
10100111011
11110101100
100110
1111111001011110
1110100110
10011011001
11000001
11110001
1111110011010001
1111100110111110
1110100100
11000100100
1100001
11000101
1111111001001100
1111110000110001
1101010010
101100001000
10110101000
10111110111
100101101111
111010001001
1001100100001
110010010110
10010110001
101011111010
100001101000
10010001000
1001111001
1111111111111000
1111111010001111
1111101001000100
1111010101
1011000000
1111111111110100
111110011
1100010100
1111111101111100
1111101100101101
1111111110000111
11000100010
11101001
1111111010101110
1111110110101101
1111111100001100
1010000111
11101001
1111110000100101
1111110110110111
10000001111
11001000100
10100100011
1100100000
100000111
10010100110
1111101010
11011101111
1111111000100111
1111110111001000
1111111100111101
1100000111
1111111101100100
100110
10010011011
10001011100
1111111011001110
1111101100000011
111001111
10011101011
11110100
1111111010100111
1111101101011111
1101110110
1000110010
1111110011110101
111101111
100011011
1111110100111010
11101100
10001111
111001
1100100011
10011110111
1101010000
111010010
10010100111
10001100100
1111111011111011
101110
1111010010
1111110011011001
1111111101
1111100000110001
1111001011101101
1111110011000110
1111011100000100
1000111000
1111111110111011
1111100111000110
1111101110110001
1000001
1111111001111000
1011011100
1111110011001000
1111101001111011
1111101010101010
1111111100111110
1100001
100100001
1011111
1010010110
11110010110
11000101001
100000010110
100010001101
1111110100110011
1111110000110111
1101101101
1111111001100100
1111101010101010
1111100100110100
1111101001100001
1111001101111100
1111111011010100
111011111
100111010111
1111101100110001
1111100010111000
1111111111001010
1111011110000011
1111101111110011
1111100111110101
1111011111001101
1111101000010001
1111111100110111
1011010100
1000011100
101110100
10010110000
100010101111
100111100101
100011110000
11100111111
1111101001111110
1111101011100100
1111110110001000
1111110101010100
1111100100011001
1111110100101110
1111100011111001
1110101000110000
1111110010111001
1111001101111111
10011100010
10110001000
1111100100011111
1111011101110110
1111011101111110
1111100011011100
1111010111011101
1111110101001110
1111110111001000
1111101101011000
1111011101111011
1111110001010001
1111111100110011
1110111100
100001011
11000101001
10010000011
1111110111011011
1111100111011001
1111100001111111
1111100100000101
1111011110111000
1111110100011100
1000001
1111010111000010
1110100011100010
1111011001000101
1111101010000001
10100101101
1111110111101110
1100000100
1111100101011011
1111001011011110
1111101111100100
1111011110111001
1111110011111111
1111110000111010
1111100110000011
1111001110101101
1111011101110110
1111011001011101
1010110
1010010100
100000001001
101111010
1111111111011010
1111100001001101
1111101110101110
1111011111111101
1111101010111110
1111111100111111
1111010010110111
1111000100111101
1111100101110011
1111110110011000
1100111100
1111010011
1001101001
1111011100001110
1111001100010110
1111010111111011
1111001000
1111011010011000
1111111101011101
1111110000110000
1111010111111011
1111101001001101
1111010110011011
1111011101001110
1111111100000010
10011000100
100111010110
11101101010
1111101000100010
1111100111000000
101111101
1111111000010110
1111111001011100
1111101101100100
1111101101100100
1111011000010001
1111001001000010
1110110100111111
11011110010
1000001110
100000011011
1111101110100110
1111011110011000
1111111101100101
1001111110
1111101011001100
1111010101010111
1111010100010011
1111011000101100
1111000110111010
1111010110111110
1111100100100010
1111111100000100
1111111011010011
10000110001
100011111
1111100000000110
1111110011000110
1111110001001100
1111101011001101
1111111010100100
1111101001000110
1111010101001000
1111101100011110
1111011100101010
1111001011001101
1111100101100101
110001001
10101111111
1010010101
1111010111000100
1111110000011011
1111110001111001
1111101101011100
1111011000000110
1111000111011101
1111100011001101
1111100111001000
1111010010000000
1111010100100111
1111010111000111
1111100100101111
1111111000011101
1111111100111111
1111110010100001
1111101100110011
1111011100010101
1111010011101001
1111101001011010
1111110000000110
1111111111011110
1110111110
1111101011110100
1111101110111001
1111011011110011
1001110
1111111101111110
100000101
1111101011111001
10110100
11000010111
1111001
101011000
1111101010110010
1101111100
1001100101
1111101011000110
1111011111011000
1111100011010101
1111100010101011
1111100100111000
1111110011001011
1001
1010111001
1111101001011100
1111111001011010
1100001
1111110001011010
1111100111000001
10011001
10110100001
10011111100
1100011100
1011010101
1111110100100010
1010111011
1010001000
1111111001000111
11101111111
100001100010
10101100111
1111111001110111
1001110110
111000110
10101000
1111110000100001
1111101110011001
1111010011111101
1111100000010101
1111110011001000
1111111010111000
1111111011001110
111101001
11100001100
10110011011
1111110001010000
1111101011110000
10101001100
1100111111
10111000100
1111100100111011
1100110101
1011110011
10001011101
1110100011
1111101111100110
101001111011
100000111000
100010000001
1110111000
11001010001
110000110
11000100000
1111111100111101
1111101111101011
1111101110101010
1111100001110011
1111101001100001
1111110000110101
11000110
100010010010
100101101011
1010000001
1111110111011001
1111101111110111
11011011000
1111110100011110
1111101001100110
1111101001111011
1111111111101111
1111101111101101
11100001100
11010010100
10000111100
10101100101
1100000000
10101111001
11001101100
1101000111
100110110011
11010110101
100010110
1111111001011001
1111110010001010
1111100010010101
1111100001110001
1111110101010100
11010101010
10000110011
111001
1111101011011111
1111100101110000
1111110000000110
10100001
101011010000
1111100010000001
1111110110011101
1111110110011110
1111110001100010
1111100110
10010000111
1011011000
1110011
1111110010111111
10100000011
11110000111
1111101101
111101011
1110100000
10000101111
10101111
1111111000101111
1100011110
101101110
10100111000
11011001110
1010011011
1111101010111110
1111011101100101
1111101111101010
1111110010110101
1111111101011000
1011101100
110
10001110110
1111111001110010
100011001001
1111110011111011
10011011000
11110110101
1111101011101100
1111111101111001
11001011110
10101001000
10011101001
11110100101
110011101011
101010010001
11111110001
110001110100
100110100111
11001011110
100010101111
1001000101
11100000101
10000100011
1111110010110001
100011000
11101110011
1110110
11110100
1111110101011100
11001001100
1111111100000001
1111110000000010
1111100101100100
100100111
1001010011
1111110001001100
1110100100
10100101010
10110111000
11011000111
100000000101
110110110101
110110110000
100101001010
100111100101
1011101001
11000101101
11001000101
1001110110
1001100110
1001101001
1000100101
1101111110
11111110101
10010100000
111000111
1111111010101000
1111110011100111
10101101
1111100101001001
1111011101001101
1111111011000011
11010100
1111101100010001
1111110011101100
1111110110001000
1111110111011000
10000011110
101001110110
100100000010
101011000000
100000110001
10011011100
1101000001
10000001110
1111010100
100111000100
100101011010
11011110111
10010100100
10101000110
1111000101
101100001101
10101100000
1111
1111110111111001
100011001
10001000
1111100000111101
1111100100010100
10010111111
1111110101001111
1111101101000001
1111101110011001
1111101000001010
110000
1001101010
1001001010
1000010011
1111111011100110
1010001100
1100110001
11100100011
10010110011
11100011000
100110101011
11110111111
100101001010
100011111100
100111010011
1100000
1111100101001111
11111000
1111101111000111
1111111011000111
11000011
1111001010000101
1111010011111101
10110011011
11000011010
1111111110101000
1111110100101100
1111110010000110
1111110101110000
1111111001000010
1111111001000101
1111111100101011
1111111011111101
1111101111010110
1111110101110110
1000010100
10100001011
11110100101
101100011111
11100011110
10011000111
1101100011
1111011001100101
1111100011100111
1111011111011011
1001001
1111111101101000
1111111100101110
11100110
1111110001110100
1111100101110011
11011000011
10100011011
1111100011000010
1111101101000000
1111011101001100
1111100000001100
1111110101100111
1111111011101000
110011000
1101000111
1001110000
1101110101
10010010
10011000100
1111111011110011
1111101101001101
1111011011011100
1111111010011011
1111101111100110
1111110101101110
1111111010011110
10100101001
11101010000
1101010
1111111100111100
11100111
1111100111111100
11010110000
1001010
1111010110000111
1111101001000011
1111110111000010
1111101001001101
1111110001001010
1111010100101101
1111101111011111
1111110000001101
1111101001101110
1111011110111111
1110111010111100
1110110100001100
1110101110110100
1110011110000101
1101100010010111
1110110011001101
1111010111110101
1111101100101100
1111111001001110
1111011001001001
1111111010111010
1111101110110000
111111
1111111011110011
1111111100000101
1111111101100010
1111110101011001
1111111010011000
1111100000010011
1001010101
100110011101
100001100101
101001000010
11100010001
110100110
1111111000100010
1111011111100111
1111011110010010
1111001011010110
1110110010110000
1111000010101001
1110110100100110
1111000100110011
1111100011001100
1111011011000100
1111110010100010
1110111110
10100100110
110101111
100010101
10010111
11110001
101000011
1111111101010100
101001101
10001110
110011000
1111110001011000
1111111111111000
101011110
101100111111
100110100001
100000100010
1111111101101101
10110110
1111000101111001
110111010
101101101001
11000100001
1111101111010100
1001000101
1111100100111101
1111010001101101
1111100111010010
10010010011
1111111010111110
10101001
1111111110011111
11010110
