1111111100101011
1111111101001111
1111111010110001
1010110
1010111
1001111
1111111111111011
11000000
11000110
111010
1111111111101000
1111111011001111
1111111000100010
1111111110000000
1101110000
111000
1111111110001111
1111111111001111
1111111011101010
1111111101000011
100001001
1111111101110010
1111111111111110
1111111100100101
1111111101100100
1111111110000010
1111111111001010
11110001
1111111010110001
1111111111011101
10001000
11000101
1111111101000011
111011
1111110111110111
101001111
1101110100
101110100
110100010
1111010110001000
1111001101001111
1111101011111011
1111101111110100
110010100
111101100011
111010100100
1111110011011010
1111010111101010
1111011011100001
1111010110011101
1111111010110111
1111110011100000
1111111110000111
1111111110011110
1111111100110011
1011100
1111111011001001
1111111100000011
1100001
1110000000
1111111111011100
1111110110111100
1111100111001101
1111100110111010
110001011
10110011
1000
1111100001
101010001100
11111
10000011101
1010100101
110000111
10111111101
100111011010
1111101101010100
100000110
1111100110
10011111000
100010110
100101010100
100110100011
1111111111110100
1111111111101100
101011010
1111111011000011
1111110100100001
11000110001
10100100110
10010100111
101000000000
110100111001
110100000110
1100100110
11100001000
100010100000
11011000110
10011001101
10011111010
1000101100
1111111100111000
1010110000
100110110000
1111000100
10101110000
10110111000
1000011000
10001001111
11110010
10101111
1100011100
1100011
1111111101000011
1111111110111110
1000110101
10100110001
1111111001011001
1110110011
11001101001
100010011101
110101110011
1010111010
1111110001
10001001010
10111001100
11000000010
100110001010
101010011011
11010100101
101000101
1000000
1111111001001001
1001010
11110000011
1111111111011001
1111101110001111
110011101
111110100
100011110111
1111110101010110
11111010
10100001
1001001011
100001110
1111101111110011
101110
1011011011
11010100010
1110000101
11001011111
1000000111
1111111000100001
1111111011100001
1111110111001111
1111111100111100
1100010
11101100011
101010
1111111001100111
1001010
11100000001
10110011110
11111001011
11111111
1111101100100100
101
10010000111
1111111110001010
100111101
10000001110
1101011100
1111110001110001
1111100111001110
100000001101
1011111100
10110101000
11001100
111000000
111110
1111101111100100
1111110011010111
1111111010110101
1111111001010001
111010
10001000
1111110111000100
111101100
1111110010110001
1111110111101101
11001101
100010011
1111111000101100
100000
1111101010011111
1001110010
10110
1111111100111111
11110111101
1001011110
1111100010101011
1010100010
1111111101100011
1110111
1111111010011011
1111110111110001
1111011010100111
1111011100111100
1111110100010000
1001000111
1000000100
11100110
1000011110
1111111001100100
1111101001011010
1111110011101100
1111110010110011
1111110111011101
1010
111100100
1111111001010000
10000
100001000101
1111110111001111
1111110001010010
1111100101000100
11001101011
111001001
1111101001000001
1110111001
1111100010101011
1111010111010000
1111011111101001
1111010110100100
1111100110001011
1111100110110010
100011111
10010100000
10110111101
1111111111111111
1111111001111110
1111111010111011
1111110111110010
1000100010
1000000010
110101001
1111111001101010
10110010000
101001111000
10101101110
100100010000
100110110011
11001110111
101111011
1111111101111111
100000000101
11001100011
1111111011100010
1111111000111011
1111100101110111
1111011100111100
1111101011101001
1111101100001001
1111111101000011
1011100010
10111111
1001111111
1111101111100001
1111110001100010
1111111101001010
101011100
1111110110011100
1111111101111101
1100101000
1100111110
11001001011
101101000010
10011010011
101010010001
100000101000
1111011101000010
1111111101010000
1111110011010001
11010110101
111110111
1111101000100111
1111111101100000
1111111100111111
10110
10000111000
1111101111011100
1010100110
1101001
110001000
111100011
1111101110111110
1111110000000001
1011011
1111110101001001
111001011
10100001001
11101110010
11111000111
11110001011
10010110110
1111110101011110
11111100110
1100011110
1111011001011111
1111111000000110
1111111100110010
10000001010
11000100111
1111111111100010
1111101101001010
10010110
11000001111
1111111011111100
1111101111000101
1111110110010101
1111111101100110
1111111000101111
1111111000000001
1111111100111100
1111111101110110
1111110010100010
1001100111
10110010010
11110010100
100010011110
10111000010
1111111001110110
1111101100010001
1111101010001110
10100110110
101101110110
1111100110111100
1111111011110100
1111100110001110
101000001001
1111110111110010
1111110
1111001100111010
1111100001010100
1111111000110010
1111011110111001
1111100110000001
1001
1111100111000100
1111011111000111
1111101101100110
10000111000
10100000000
10011111
10010001110
1111111110100100
1110010001
1111110100111001
1111100000001110
1111001001111101
1111111011111101
1111001101101010
1111001010001110
1111111110101111
10100101010
1111101110
1111011111100011
1100001000
101111010
1111011100101011
1110111100010101
1110111000001000
1110110010001010
1111101110000111
1111100110110010
1111010101000101
1111000111010111
1111001010111101
1111101010101001
10001111100
101010101
0
10010000111
1111111110111010
1000001011
1111111001101111
1111000000011111
1110101110100100
1111011100110111
1110110000110100
1111000100110011
1111100000101000
1111101101101100
1111101001110010
11100110010
1111111011111110
11000100
1111100100001100
1110110101000000
1110111110011001
1110100010001000
1111010011111001
1111011011001101
1111000010000111
1111010000110111
1111011001000000
1111101000100001
1011101101
11011110110
1111111001011111
1111101000010101
1111011110010011
1111011000110011
1111001011010000
1111010001100000
1111010110100101
1110101010110101
1110001011111011
1111000101001100
1111101100101100
1111100011111111
1111101110000001
1100111101
10100010101
1111110110001100
101100
1111011010111111
1111101001110010
1111010001101110
1111101101000100
1111101110101011
1111100011101110
1111110100111101
1000100111
110001101101
110000100011
10101010111
1111011101000001
1110101100001110
1111010111011000
1111010001101101
1111010111110110
1111100100100101
1111100110000001
1111001011101110
1111010001100000
1111010111100101
10110000011
10100111111
1111110111001110
10001000010
10100101010
100000010011
1010101011
1010100011
1111111000110101
1111101101100000
1111101010010111
101001110
10000111
0
100001000001
111100001101
100111010101
1111110110000110
1111000001001001
1110110001001010
1111001111110100
1111011101110101
1111101011000111
1111111111100100
10100000100
1111101000110101
1111101101100000
11011000111
101110001111
1111000010
1111111100110100
100101001000
1111011
11100110100
100000011000
110110100100
10000001110
1111010
10110011101
1101110001
101111111
1110110
11111110000
11101000111
1111111000000101
1111101000110001
1111011001111101
1111100001000011
1111011001010010
1111110110101100
1111100100000101
1111101000101001
1111101110110111
1111011101110111
1111101110101110
100111101101
11011100111
100001100001
111000111
110100011101
1111100110111111
11000101010
100001101100
1001000100111
11001010010
1010000011
10100110101
111000
10000000100
10111101010
11010100011
100000100
1111100111010011
1111110101111110
101111010
1111111011100011
1111110100111001
1000101111
1111110100110110
1111011101100110
1111110100100100
1111110100010111
101110010001
100000010110
1111110110
11100110101
11111000
1001000001
1111000111000011
1111100111101111
1100011001
11110001100
100010110101
100010101101
11100101000
1111111100000111
11110000001
1111110000111001
1111101000011001
1111110101000110
1111101100111110
1000000000
1011100011
10011100101
10110100
10110001000
1111111010011000
1111110011100000
1111111110101001
1111101111101100
101001011011
10110011011
100000000010
1111110100100101
11110111
110011111
1111001101101010
1100011011
10111000111
11000011000
11101111101
100100000001
1111111100
1101101001
10000000111
1111111000100110
1111011010010110
1111110000101101
1111101100110000
1111111111001010
10011010101
1011001010
1100000010
100010001111
100101100111
1100110101
10011111001
100001000100
100010000101
10000010001
100011110001
11001001110
1111111010010010
101100100000
1111101101001010
1101100
1011111101
1111110011110010
10001011111
100110010000
10100100011
11010010100
10101001
1111101110011001
1111100010000011
1111111000001011
1011000
1110001001
1110011100
100000000000
11101101100
11101000101
1110000
1111101000110000
11111010001
101011000011
1111110101010100
10011100
11010010101
1111111111011110
1111111000001110
101001
1111101010100111
1111110110001110
11011101010
100101000110
100110100100
11110010001
1010101010
1111101101000011
1111101111010000
1111111100000100
1011
1111111001011011
10101110
1111110100001110
1111110011001110
10001100111
10000101001
10101010101
1101
101110100
1101001111
1000110001
1111111101110111
1111111101011011
101000110101
1011
100011110
1011
11000011100
10000110001
110100010101
10101110010
10111010101
100110000101
101100011
1111110011010001
1111011101001011
1111101001111011
1111111011000001
1111111110110010
1101000101
10110010011
11011011010
100101001011
1110110111
10101001011
110000011
10000011000
1110100100
1111111100110111
110010001
111000110000
11100100111
1111111011110111
1111111010100101
1111111101100111
10011111101
100111001011
100010010101
10111110110
101110000100
1110001001
100001100
1111101111011110
1111100100011000
1111111001100110
10000101000
100000001110
100010101110
11010001101
100100011010
1110110011
1111100011100010
1111110001001110
1111101000110011
1111100101011010
1111111110001101
1111000101100110
1111011100100101
100010001
1111100111110110
1111111101011111
10101001
101000110
10110000111
10011010101
101001011110
111110100
1111110001010011
10000000110
101110010101
111110
1111110111001100
1111110111001011
101001000001
110000000110
100011010001
10101101101
110100001
1111111101010110
1111110011001011
10100000011
1111101110110100
1111000000011101
1111010000111011
1111110000100111
1111011000001100
1100110100
10110100100
1111111011110011
1111111110110100
1111111101001000
1111111111111011
1111110110101001
1111011111101000
1111001100010111
1110111011011011
1111010001000001
1111000010011110
1111001110001100
101010100
1100101101
1000011
110011000
1111110011111101
1111110011100011
10100001001
101011011000
11001000001
111111000
1111011111111001
1111001101111000
1111100011101000
1111100100101000
1111111110011110
1111111101001110
11110100
1111111011100010
100110111
10000000
111
101000100
1111110000111000
1111110011010100
101100100
1111111101111100
1100010000
1111111110110111
1111100010010011
1111010111000100
1111011000100110
1111011101010100
11000000001
10111000
1111011101010101
1111110001110100
1111111101110011
1110101110101101
1111010101100001
1111100011000000
1110000000
1111101110100010
1111111111000010
1111111100111011
1111111011000010
1111111011100000
