110011
1111111100100001
110100
1111111110011001
1111111101011010
1111111110110010
101010011
11101011
1010
100110101
1111111101111100
111110
1110100
1111111110000000
1001010
1111111011100010
1111111110010001
1111111101110111
10111010
100110111
1111111011000100
1111111010100011
1111111011100110
10011010
10100011
100010111
1111111011111010
1111111110110111
1011100
1100
1111111111010000
100001000
1111111100101000
101001
1111111001110010
1111111110010111
1111111100101000
1111111000101111
1111101101101011
1111010101011000
1111010100011111
1111100000001000
1101111111
111011000
1111011001110110
1111000110100111
10100
1111110110000100
1111110011000110
1111110010111101
1111111100000011
10010111
1111111110011000
1111111011010010
1000110
1111111010100100
1111111011111101
1111111101101110
1111
1111101101010010
1111110110000001
1001101000
1111011101101010
110100100
1111101100000110
1111101111000101
1111100111110111
1111101100111110
1111010001010001
1111010011100001
1111100011101111
110000110
11001101000
1010111011
101001111101
11001101011
100100010010
1111110100
101011001110
1111111110110000
1111011010010011
1111111101011101
11111100
10011100
1111111100100100
100110010
10000010010
11010000110
10101010110
1100100111
1111111110011111
11111100111
11001001000
11011111101
1011100100
10001111
10001100000
1101101
1111111110111011
1111111110000111
1111110011010010
1100111
11100111000
1111101110
1110000101
101111010
11010000
1000011010
1111111011001111
1111101110001001
1111111110011010
1011011
1111111101000001
1111110100100001
10100001110
101011111100
1111111110011110
1111110101110010
1111010101001001
1111101100001111
1111110101101111
1111100100111011
1111110100111101
100100101
1111111111100110
110000001
101010101
1001011100
1111111000101001
1111110000101110
1001010000
1111111001000000
1111110001111001
1111110101110001
1001000101
1111101001110001
10010101110
1111101110111010
111110
1111011101001010
1110000
11001000
1111110110010001
1111101010100001
1000111110
1111110111010001
11101000
1111110011110111
110101001
100100
1111110110110101
1010100111
1110110001
110101111
11011100
1111111001100000
1111110100000011
1111101001000000
1111010111111011
1111011101101011
1111101110110100
1111111010011000
111100101
1111110101110111
10000000010
110100110
1111111101010001
1111100100010001
11001101
1111110101000011
11001011101
1111111111010110
100111010111
1001101001
1011000111
1000111111
111101001
101100000
1111111010010010
1111111101111010
10111011
1100011010
1111101
1111101010101000
1111100010011111
1111100111110101
1111011111010111
1111101001011110
1111101110010010
1111
1111101111000100
1111110100101101
10010100111
11110111011
11010011001
110110100
1111110110011010
1111011110010101
1100010101
1111111011111000
1111101101011000
1111101110101110
1111010
101000
1110010001
110011111
1111111001110100
1111101100000101
1111111110111100
10110000
1111110000000011
1111001011101100
1111101000000001
1111011101101111
1111011110000110
1111100101100100
1111101000100110
1111101101010110
1111101111100100
1111100100100010
1111010110001011
10101010111
1000001011
1111111000000000
1111100001111001
1111000111110001
1111110110011010
1111101001100000
1111100111001010
1100001001
100110111011
100001100001
10110111100
1100011
1111110101111010
1111100100100000
1111100000001111
1111110001011010
1111100011110101
1111011010001101
1111010011010111
1111010011000001
1111101101101011
1111111111100111
1001101101
1001010110
1111011111110011
1111100010000010
1111011001000010
10001001011
1110010100
1111100011100110
1111101001011100
1111011110001010
1111110000100000
1111111111111100
1111110001101110
1111111010010001
11011010111
1100111001
1101111010
1111111111100010
1111110111111001
1111111000101011
1111110100000100
1111110111001010
1111111011111000
1111111100100111
1111111101110101
1111111010000110
1111101101001111
1111111001111001
10100110
1001111011
1111111111011011
1111100001111111
1111101000111011
10001111011
1111100111001000
1111110110101101
1111011101111001
1111101011100100
1111101110101000
1111111001011011
101111111
1111110001100111
1111101011111000
1110110011
1100010000
10001000001
1111111100
1001100111
11000
11010101
1111010
10010010111
100100000111
110110000
1011100011
1011000011
11110000
1111111111000111
1111110001011001
1111100111010000
1111111111000101
1111111110110101
1010010001
1111101110110000
1111111000101100
1111100010110000
1111101110
1111111010011011
1111110110110110
1111100011111100
101100001
1011000111
1100100011
100101100010
11001100000
1101011110
1111111010000100
1111101001011110
1001000101
1000001110101
111110000100
11100000111
10100101101
1111111000100101
11110111
100000000
1111111111110111
10011101110
1000110
1110110001
110000011100
11111001011
1111111001011110
1111010001111010
1111110011011011
1111110110101001
1111101111001001
1111111010010000
1111111101000101
1011011101
1101001110
1111101
10110111111
10001010011
10010100
1111111100001011
11110010101
1000010001111
101011110010
1110000011
1111
1111111010000110
1110010010
1111110111001000
10000011100
11001010101
1101000110
11100111100
111101011111
1101000101
1111110110111101
1111011011001001
1111011110000110
10011001101
1111111101111000
1011001100
10010000001
111
10010001
1001001000
10111011001
11100000110
10000100110
10101011111
101001000010
101110101001
100111100111
1110111111
100001100
11010011111
100101010111
11001001110
10101000
1000101011
10010011001
11110000100
110001111101
1111100010110111
111101001
1111111111101011
1111110001110110
10111001011
111100000
1010011010
1000000111
1110011100
100101100001
11101101010
11101110101
10011000011
10000010111
100111010110
110101110000
110001011100
101110001010
1001000111
10001101111
110111110111
11111000001
10111001011
100000011100
11010110011
11111000000
101100001100
100001101001
1111100110001100
11000101
1111111111000010
100011101
10011010100
10011000101
11101011100
111011011010
11111000010
10101010100
110100110
10001001
100001000
10000011101
100101110011
100111011111
110111001111
110001100110
11100110001
101100010110
110011010111
10011111111
100011100000
100110011111
11101011101
100001011010
1100001101
101001111111
1111111001010101
1111100111011000
1111100111111111
111010000
1111000110
11100110100
110000011000
101001111001
11101000111
10011110001
10111100
1111101011010001
1111101010100010
111000100
10110000100
11001010010
110011110101
101001011010
110110011001
101111100111
1101111000
11101011110
100100100011
10101101111
101110010110
1000011110011
1010110000
10111000011
1111110010001011
10111011
1111111111110111
1111110111010010
1000100
1111111101100000
11101010011
11001110000
100101100001
101111011000
1100011101
1111101001001000
1111101101101000
1111110101100100
1110111100
110001101001
110000110000
11101011011
110011000111
110001110001
1011000100
101100010110
111010000111
111000000101
110010101010
110011010111
1111110110010111
1001111001
1111110011010111
1111110001001000
1111101111111101
1111110000100001
10001000
100001101001
10001101000
1111111101110010
1100101110
1111111111100110
1111110000101011
1111110010001001
1111111001101111
1111110101111111
10100111101
100000000000
1111100110
10100111100
100111011111
101001010111
100110100110
101000110101
100011011100
101100101110
11100010000
10101010000
1011110001
1000100111
10011110011
1110000100
1111011111101000
10001100100
1010000100
1111111011111000
11010010111
1011111101
101010001
1111111000100101
1111101110100110
1111011010100011
1111101011011101
1111100111011100
1111101111000010
1111111101000010
1111111111111100
1001
1100110010
11010000101
10100110011
10100110101
10101000001
10100100001
100110100011
10101010010
101001100001
100001
1110100
11011011
1111011111011110
1111110000011010
1111111100010001
111000001
1111101100111000
1111110100110100
1010011
10011011
1111110101100100
1111101001100101
1111110000000000
1111011010000100
1111100011011001
1111011110111000
1111011100011011
1111100001101010
1111101001100000
1111111101101111
1111100111010001
1111101101011000
1111101010011011
1111111011110111
1111110000101101
1100000110
100101101011
10110100101
11110110101
1111111101101010
1111111011101101
1111101110100010
1111110101100110
1111101111111011
1111111000100110
100111100
1101001001
1111111001000101
111100000
1110110110
1111111111000001
1111101011101100
1111101011111010
1111101111001000
1111011011010100
1111011000010100
1111100010100100
1111100110111110
1111001100100011
1111111010000100
1111111110101101
1111011110010010
1111011001101000
111111000
10001111111
1111010101001010
1111111011110111
10100011
100001
1111011000010011
1111110011010100
1111111000100001
1111111000111111
1111111110011010
100010111
1111110100110111
1010
1111011001
1000100110
1011
1111111001011000
1111110100011011
1111101000001110
1111101110000000
1111100010000111
1111101001011010
1111110000111000
1111111000001011
1111100101101100
1111101111111100
1111000010000011
1111100111110010
1111001100101011
1111101110001100
1111110110101110
11011000
1111111011010101
1111110110001111
1111110111001000
1110001101
1111100001011100
1111111001011100
1111110001001011
1111101010010010
1111111011110011
1111111010011011
1111100110101100
1111101010010101
1111110001111000
1111111101001000
1111111001000001
1111110010001110
1111100101011110
1111100110000011
1111110111000011
1111110011100110
1111100101001111
1111100101011001
1111000001100101
1110110001110111
1111000000001010
101101000
10101110
1111111110000011
1111111100110101
1111111010101010
1111101111000000
1111101101000010
1001000101
1111111101100101
1111111111100100
1111101110101100
1111110110100001
1111111100101101
1111101010000100
1111011001000011
1111011011101100
1111100101100010
1111011001000110
1111100011100101
1111111000101010
1111100001110110
1111010110110001
1111010100100101
1111010111001010
1111011101011100
1111101100011011
1111011010011000
1110110000101011
1111001110101100
1111111011101000
1111111011111111
100101100
1111101101011100
1110111000
1111000001011010
1111110000001101
1111101001100011
1111110111101001
1111101100011010
1111111
101111011
10011011
1000111011
1111111110011111
1111011111011000
1111011010001111
1111110010010110
10010010
1111101011101100
1111101011110101
1111011000111000
1111110010100000
1001001011
100001110011
10010001011
1111011100001010
1111011010011110
1111111010111100
11101001
1111111011101010
1111111111010000
1111100000
1111100001111111
10110100101
1101100000
1111011001000110
1111011011001111
1111111100100111
1111110110111110
100101001010
11001111001
1111101111111010
1111100000001110
1111101111010110
1111101101111111
11101010011
1111111011000111
1110111011100010
1111110101111010
110000111010
1111111101001001
1111101100011110
1111111001100110
111011111
1111111100111001
1111111010100100
10111101
10000101
1111111100000010
1111111101100111
1111110000110110
1111110111110110
1111110011001010
1111010100001011
1111000011000101
1110101111010101
1111110110010101
1111100101111000
1111001100001001
1101111001111010
1110010010101101
1001010
1111001000011010
1110011011100100
1111011000000000
1110101110111100
1111010001000101
1111101011000100
11101001101
10011101
10001110
1111111110000101
1111010
1111111100011100
