1001001100
110001001000
1111111111110101
100001010
1111010001110110
11100110000
1111101001101010
1111000010100111
1010110000010
1111100010010010
100010110
1111001110010000
1111101001100110
101001000000
1110100001100000
1111000011101011
1111110000011001
1110101011001000
1101111100010101
1111011110011001
101000001001
1111100110100011
1110010001101100
11101000010
101110110001
1111000000100001
1111110011101110
10111101110
1111110100
110100001010
