1110101110
1111010000100111
1111001100100010
10111001110
1110110111011101
101010001100
1001010110
110011111101
11110011110
1110110110100001
101011010110
1111001111000110
100110011
1111011110100001
1111001110110000
11000001001
11111100010
1111110100011111
1111110011100011
1111001001001010
1000010100111
11110110001
100010110000
1111010010111011
11110100111
1111011011110010
10010011010
1000000001
1010010000010
111110111000
