1110100110011111
1111101101110111
1111011110101111
11100011111
111011100010
1110101010110111
100101010101
1111101111100011
1111001101011001
111011111001
1111011111001100
1111111001100000
1111100110011001
1111100011000000
110101111111
1101100000011
1111110011101001
1111011011100
1000010101010
11001011101
1111011110010011
100000100
10010111111
1111101111000110
1111101100111100
100100000001
10101011110
1001010111
1110101110101000
1111101010100010
