110100000011
1101110110010010
1111011111000011
1010110001110
11111011010
111000011001
10000000001
1110111000101001
1110100101010100
1110110111111000
1101001111110
1110010101011010
11111000010
11000110001
1110011011110001
10101000011
1101111111000111
111000100101
1111110011001100
111001010111
1101001101000
1111101010101101
100101110111
1111110100100001
11001100010
1110011000110100
110111111001
11101011101
100101101100
1101100010101001
