1111111101100100
10001110
1111111110010111
1111111101000100
1101000
100001101
1111111100000110
10001
1111111101011101
101001000
1111001
10011110
101100011
101011100
101111
0
1111111111111100
10001101
1011011
1111111100100010
10100000
1111111111110010
1100
1111111110010001
100001011
1111111010110010
1101110
1111111110001101
10111001
101001100
100000000
11101100
1111111110110010
1111111101100011
1100100101
100101010
1011000
1111111111010000
11000011
1111110110001011
111111100
1111111000010101
100001100101
111010110
1111010011100000
1111000011000101
1111110010000110
10010100101
11110111100
101110010011
1111111011110111
1111101011000110
11101111
1111111100100101
1111111011010100
100001000
1111111100111011
101001001
1111111100111111
1111111110001001
1111111011010011
1011100
1111011010
1010001010
10110000101
1111111101110011
1111100110010011
1111010010111000
1110111111110000
1110111001001001
1111001011000001
1111001110100001
1110111010100000
1110111000100011
1110111011100100
1111101010011101
1111100001010110
1111010100010110
1111100001101111
1111111101011101
1111111110110110
1110110
1111111100001111
1111111111111000
100101001
11100010
11011101110
11001100000
1101110111
1111011011000100
1111101011010110
10011101011
1111101101010001
111100101
1010010010
1111111011101000
1111110010001111
1111010001110001
1111000010011110
1110100010010111
1110100111000010
1110101001111010
1111010111011100
1111110001000010
1111011010000110
1111011001001000
1111110001001101
1111110100100101
1111100000110000
1111100111011000
1111101010010100
1111111111001101
0
1111110110100001
11101011110
101011010000
10001000000
1111110100100100
1111010010010111
1111101001100010
1111011110010000
1111011010011101
1111100001001000
1111100111011101
1111000111001011
1110100101010011
1111000101000110
1111100111010000
1111111001
1111101010010011
1111101110000110
100111101010
10001111011
101101011
1000110110
1111100111001100
1111101101011111
1111000010111100
1111011111011100
1111101011000011
1111111111010000
100011010
11101000110
110000001
1100000011
101011100110
101000110000
100011100110
10110101010
100001000000
1100101110
11110001
10101101
1111010111100100
1111100100011111
1111111001001001
1111110101000000
1111101100110100
1111101100100000
1111111011100001
1111110110101000
1111111110000010
101011001
1111100001010100
1111110000110110
1111011001110000
1111011000110100
1111101011100001
1110000
1111111100100110
1111111111100101
11001111110
1010101011
10111000110
101100000101
11100111101
100100100
1010011010
100000011101
10011000101
1111111101100111
1111110101100110
1111110110001000
1111100111111011
1111111111101100
1010101100
1111111011011010
1110110110
1111111111010100
1111111001000100
11001010000
1111101011001000
1111101111000011
1111000110100000
1111101110011100
1010011010
1110111011
101110111000
10100110000
100001100100
1011110001
1111110000011010
11000100101
1010111110
110010101
10111001011
111101011
1111111100011001
1111100111100011
1111101010100111
1111101100011100
1111101100001001
1101010110
100101100111
1111011110
11110100010
100111110101
11100100101
1111111111101011
101000110
1111101100101101
1110101011101101
1111111101001011
10101000001
11101111011
100101
1000101001
10001000011
1111110110101001
101001101
1111111110001001
10001110011
101000111110
10001111100
100110010
1111110101111110
1111110101110001
1111100000011001
1111111011000011
1111111001
1100110110
11101101100
10111100100
11100100110
100110011000
101010110
1111110010001100
1111111001001111
1111001111000110
1110000011110111
1111001110011100
1111110011001001
11110101110
111001000011
1111111110110110
10111101110
1011010001
1110011
1111110001110001
1100111101
101010101010
11110100010
110010101
1111110101101110
1111110100000111
1111101101000000
1111110110011000
100000001
11110010010
11000010100
1111111011011101
111001
1000111010
10110010
1111111111110111
1111110101100011
1111010110010010
1111010110010001
1111110100010111
11001101011
101001010101
1111100010001
1001101010
1111110100100100
1111111011011110
1001010110
1111110011010101
10001011001
1111110100
10010010111
110110110
1111101011010011
1111000111111010
1111010110110011
1111101000000011
11100010101
11011110110
1111010000
1110100000
11011000
110001100
1111111100010010
100011110
1111100110111110
1011101110
11101110001
100101001
100010100001
110001100001
10110100111
111100010
1111100010
1111111000010001
1111111111000010
1111110111100111
1111010100
10110110001
11100010111
1110111000
1111001110001001
1110011011000100
1111000000001001
11010111
11110111010
10100000100
111011
1110110001
101110111
10011011101
1111111100001000
1111111010011101
1101011111
1111110010001111
1111110100010110
1111110111101001
101011100101
101001111001
1000111111011
100010101011
1111110110100011
1111110111001110
1111101010001111
10100011011
101001110110
1100010000
1010101
1111101010111010
1110100001011000
1110101001111011
1111000100000111
1111111110100100
10001001010
10000111001
100010001
1111101101
1111111111111001
11110011
10010110001
1111111000010110
1111100001000111
1110111010000000
10001100001
10001111111
10100000011
1111111011101101
110001010100
101001100011
1111110010111101
1111011010110100
1111101010011001
1111111101110010
1111110010110100
1111110100010000
1111000010010101
1110101000000011
1110001101110001
1111000010001001
1111100111010111
1111111110010101
100111010
11011110
111000000
1011100110
1111110001101100
10110011
1010010001
1111001110000101
1111011100101100
1111100000001001
1111101101001000
1111000110011111
1111011000010101
1111111110011011
10010001100
100100011111
1111100100000001
1111110110101000
1111111100000001
1111111011001101
1111011000101101
1110110101110000
1110100100010011
1111000111001000
1111101110101011
1111111000110010
110110
11011000110
10010011100
110100100
1100110
1110010100
11110111100
111000001
1011010100
1111110101010110
1111100010111100
1111110100111111
1111110100110101
1111101001110000
1111101011000001
1000011001
1111111011010110
10001110101
1111001010110101
1111101011001101
1111101000111000
1111101110111000
1111001110111110
1111101000111100
1111101001111001
1111110100111100
11000001010
11110101
1110101110
10001101011
11110100
11100001
1001011110
10010010101
1111011101101100
1111111100110101
1011010011
11100011011
1111101110111011
1111110010110111
1111011000011101
1111011001110110
1111100110100100
10100000000
101111111
10000101
1111000010011000
1111101100100101
1111101010011010
1111110111000001
1111101100110111
1100100111
11000111111
1111111100100101
100110101
10000011
10100011000
1110101111
1111110110101001
1011110001
1010110000
1000111011
1111111000110111
1111101101111001
1000010010
1111011000001111
1110111100010101
1111011000000010
1111100000001101
1111010111101100
1111011100001111
100011000
101000001001
1111111110101100
1110111111000100
1111110010100110
1111110100010100
10111001
1111111100000011
1111111010000000
1101110
1111111001011000
1000000100
1000011110
11011011011
10100110010
1111110000101000
1010011
1111101011010010
10101101111
1111111110011010
111111
1111110011001101
1111111100110111
1111011110011111
1111011100110010
11100011100
1111101101111001
1111000111111000
1111111101110010
10111001101
11111011011
1111100100011101
1111000011111100
1111100011010000
1111100001010101
101010111
101010000
1000110111
110011
1010110
111001111
10010000101
1111110110010010
1111101001010101
1111111000000110
1111111101110111
1111110000100010
10000011
1100100000
1111110100001011
1111000000010000
1111001101111010
1110111011100011
111010001
101000000010
11110000001
10001111011
1110011110
101000010111
1001110100
1111110111010000
1111101000011101
1111101000110010
11010110
1111111011101001
1000001010
1111110000100010
1111110011110011
1111110101101110
1010
1111101101011111
1111110110110101
1111100110011010
1111011001101100
1110110011101111
1111111100011111
10010001011
1111110000110100
1111010000101110
1111010100111000
1111100011110010
1100000001
1111101100011100
100011000100
1111111110100100
1011000100
11010110000
100100101
1111001111
1111010111010001
1111110010001110
1111101000001100
1111111101101111
1111101001110011
1111101011100100
1111101100011110
1011010
1111100110000010
1111111000011011
1111101100011010
1111000111001100
1110111111100011
1110011100011011
1111001010111110
1111100110001110
1111101011000001
1111110100111001
1111010101010101
1110110011101110
1111101000010001
1111101000101101
111011101
11100000100
1111110100011000
10110111100
1111101100010111
1111101100101001
111
101010010
1111110001101111
1111100100010111
1000
1111111101101101
1111011011110101
1111101010010000
1111100111000010
1111101101001101
1111001101111010
1111010011110011
1111000000000100
1110111100010101
1111000001010001
101010011
100011010001
1111111111101100
1110111011011011
1111100111011101
11000111111
100111000110
110000
10010011101
1110100111
1111100010101010
1111101011110010
10010011100
10010010110
1111010110
100110100
1111110111001100
11110
1111101001010101
1111100010000110
1111101000100010
1111101111101000
11010101
1111100110110000
1111111101111110
1111100010101101
1110110111001001
1111010100100111
1111110100101110
1111101001011000
1111100010111010
1111001100111100
1111100011000100
101110010101
101111111001
1111111101010110
1111111111100100
1100111
1110111110010010
1111011010100110
10010001011
100110101010
11101111100
1110111
1111111101010101
1000100110
1111110011101001
1111101100101111
1111110001011010
1111111000100011
1111111110011111
1111110101000110
1111101101101100
1110111111011010
1110101110000000
1110010010011100
1110111000000001
1111011011101100
1111101001101000
1111011000001100
111011001
11100000110
101010111010
1111111101010011
11100010
1111111100011001
101110001
1111101111100100
11010111110
101010100101
10110100100
1111111011111001
1111111010100000
1111110100111110
1111100111111101
1111100111111101
1111100000111111
1111100101010101
1111111111010000
1111111111100000
1111110010110011
1111101101000000
1110011110101100
1110010010101011
1111000000001100
1111010000000001
1111001110000011
1111010011001011
1111101010010001
1010101001
100001001001
1111111101000010
100100010
11110100
1111100000100111
1001100010
1011110010
1111111111101110
1111101011101110
1111110011001100
1111110111111001
1111110001010001
1111011011010101
1111111011100000
1100011011
1111111101101111
1000000110
11110001110
101010011101
1111111000
1111110100011110
1111011111001111
1111001110000110
1111010001111001
1111010011010001
1111011010111001
11101101100
101111001
1111110011001101
10000110
11100110
11101100
11001111
1111101110110001
1111000111010111
1111110010100110
1111110011000111
1111110110110100
1000000100
1111101001110001
1111110010000101
1111110110000000
1111100001111110
1110110001
1111110100110000
1111110101010011
1111111101010111
1011001011
10001010
1111100011100000
1111100010010101
1111011100100000
1111101100001101
1100100001
1111100111100111
11100010111
1010100
11101101
10000110
100101011
1001110
1111111100111011
100101101100
1001001100101
1
100000001010
100010110100
100011101101
1000001011110
1000000001
10101101000
1110100000010
100011101110
100000100110
1110000001111
111001111011
10010111101
100101000101
1111011101100011
1111010010101110
1111101000010100
101100111110
11000000
111001
1111111011011101
11001000
