1111111011111100
100100000
110
1111111011100101
1111111111110111
10110000
1111111101001100
100000101
1111111101101111
100011111
1111111100000011
11000101
1101100001
10011110011
1111111101110011
1111111100101101
1111111010111000
1111111101100000
1011011
1111111011101100
11001010
1111111101111101
1111111100000101
11100110
100111001
100000001
1100000
1111111110000000
1111111101000010
1111111011101101
1111111011001010
1111111010110011
1011011111
1110001000
101001101011
111010110010
100100111010
1001010101110
1100100100101
10001000001110
10000110100101
1001111010101
10100011001
101011010010
1111111110011001
10110111111
100100110100
100001101010
11001001100
101001100001
10111111010
10111011110
101011
100000111
1111110
1111111100110011
10010010
1111111011110110
100000100
10010100001
10111010101
11001000000
1001010001
1001111111011
1011110101000
100111101011
110010111010
1011110110111
1011111011011
1001110100010
110110110110
100100011001
1100010100
10011011011
100010010110
10110101001
10010000111
1111111100110010
1111110101100100
1111101110100110
1111101111010010
1111111000011000
1111111110000011
1111111101111111
1111111111001101
1111111111101010
1111101011110111
1010010001
111101000
111110111000
111011111110
101010011101
111110001010
111101110011
1101111001
10110000
11011111011
101101011101
1111111110011111
1010110001
1111101100010010
1111101001010001
1111111110001011
10111101
1111010111000001
1111011001001000
1111111100000010
1011110
1111011110110101
1111101101101011
1000100011
101011000
1111111101000010
1100100
1111110000010101
1111011110001111
10101100011
100101100100
10101000100
100010110111
1011111010110
1010000101100
110010110111
10100000110
11010010010
1111100001
10010100100
100011010110
10101101101
1001110010
1111110100111010
1111101000110001
1111101001111111
1111100011010110
1111101110000111
1111110011101010
1111110010000101
1111110000110111
110100010001
110000110100
1111111101111101
10000010
11001001101
10110010010
100111001100
1000100011
11101001101
1100111100
1110011
10011100110
10111110011
110000001001
11111011000
1101101010
11001000
1100100000
101101010001
10001110110
1100110000
1111110110111111
10000101000
101011011100
11010101101
11010011110
10001101110
1101001000
101111010111
10010111010
1111111100011110
1001001
10001001011
1111111110010101
1111111001011111
1111011000110000
1111100000001111
1111101001101000
110000000
10111011
111110110
1011001
1111111000101100
1111111001111001
1111110011100011
11110
1111110101000101
1111101111110001
10000101000
10001100110
100000001101
110011111
1111111100111110
10101100010
11111000000
10011010100
10011000001
10001000111
10
1111101011000001
1111110111100101
1111100100100110
1111111101010100
1111101111100111
1111101000110110
100011011
1111110100101001
1111110100100011
1111111011000010
100101110
1111110011011010
1111100100111000
1101011
1111111101001000
1111110010010101
1111111001011110
11100010010
10111000111
111000110
100011001
10011011011
110110000
10101001010
1111111111110111
1010011101
10001110001
10100000010
1111011011010001
111100000
10001011001
1111111111010111
1111111111000101
10010011001
11001111
1111111000111110
100101110
1000100110
1111101100111001
1111110010000110
1100000100
1111111001010001
1111110000110011
1111111111101110
1110011
1101001011
10100011101
111100111
1111110011011010
1111111100110100
11101101
11100001
1111100000010101
101000010111
101001100100
1111110101111001
1111101000011111
11111011000
1111111100010110
1111110011000111
10110110
10111000001
10100010101
1111111001100001
110101111
1111110110111011
1111101001010100
1111101100010010
1111110001100000
1111101110100001
1111110110011011
1000011
1111110011000010
1111110011001110
1111111110000001
1111111110011011
1100011101
1111011100101101
1101101100
100001111110
10110101001
11101010011
1111110000000100
1111110100100110
1000001110
10100010010
1111110000001111
1111110011101101
1111110010000010
1111111011010111
1111011010
10101100001
111001101
100010000
1111100101100100
1111100001101001
1111100010010111
101010010
10111001
1111110101110110
1111110011100110
1111110001111000
1111110111101011
1100111000
10011100110
10100110011
11100100111
111100000010
1111100101111000
11011011001
1010010011
1111100100100001
10011011000
1111011110110010
1111111111100101
1001000110
10000101
101001001
1111111100000010
1100111011
1011111001
1111101110000010
1111010110011111
1111010011101011
1111101110001000
101011101
1111100011011101
1111011010011100
1111011111010000
1111110111000101
1111110010011111
1111110000110111
1101101011
11010101
10001000
10110100101
1111110111100110
111111000010
1111111000111011
1111110011100110
1111011000010110
1111101001011010
11011111010
1110100001
11111011011
1111111100000101
1011000101
10110110
1110010100
1111110110111110
1111110010100111
1111111011000100
101111010
1111101100111001
1111011011011110
1111010100101010
1111101110001110
1111100101101010
1111011000100001
10100101
1010111100
10111011
101011
1111110011010101
100110101
1111100100100010
1111111110111011
1011111101
10100111100
1111010111001011
11010110110
11010011001
10101110000
1111111001011001
1111100110111010
1110100100
1101110001
1111110100001010
1010011011
11001011101
1111111100011110
1111110001001111
1111100000011111
1111001100100110
1111011001111010
1111011110010110
1111101101111101
1111111010010001
1111101001000110
1111111001011111
1111111011001111
1111110001001101
10011001010
1111110110111001
11111010011
100101110
11001110001
1111110000001100
1010101010
1000011001
1111110101011100
1000011
1111111000101001
10011111100
1111101011110001
1111111111101000
11000010000
1101010101
110111110
1000011001
1111110000101110
1111011111001100
1111011011000000
1111101100000101
1111111101011001
1111100011011011
1111110010010001
1111110010001000
1011000
1111101111011001
1111111011001100
1010010000
10010110110
1111101110100000
101010110
100001111010
1111110001011111
1111101110010111
1111101110001110
1111101010000111
1011110101
1111111001001100
10101
1111110111101000
10100110101
10110110010
10100110100
11001010111
1111100111000110
1111101100011100
1111101010100110
1111100110000110
10001001
1111110011101111
1111100100101001
1111111001000011
1111100110000010
1111110010010000
101001110
1111010001101111
1111110101010110
1111100110111111
1001001001
101100000110
1111111000000101
1111001100010000
1111101100010011
1111011111111101
1111101000000010
1111011111110101
111000
10011110101
1110101101
101100
11010011100
1101110110
1111101111110111
1111100110111110
1111100011111100
1111100110110010
1111111100110111
1111101011010010
1111100101011001
1001001010
1111111011010110
1000011111
101011010101
10100000101
1111111101011101
1111111011111000
11000111000
100000100100
1111101101100000
1111011011100010
1111111111010000
1111101000100100
1111101011011010
1111010001101101
1111110011011011
1111110111001111
1111111010000010
1111111011111010
1001000111
1111110000011001
1111010001001101
1111010010110110
1111011001010101
1111100101111100
1111111111111000
10001001111
1111111100100011
1101001000
1111100000011111
1100010100
1110111111101110
1111011001110110
100000
1111100001111000
1101101011
11000101000
1111111001111010
1111011010100001
1111011110011111
1111110000101100
1111111110010001
1111100100010100
1111010100001101
1111010111001010
1111100000010010
110010011
1111111011000010
1111000110101100
1111010010001110
1111000110111010
1111100100000011
1101010
1111111110101111
111111110
1111100100101011
1111101011001111
1111011011110100
11001001111
1111010000011011
1111011001010111
1111111111010101
1110010001
1111100110000011
100111100010
11001101
1111100100101011
1111101011000000
1111111001011000
1111111111000111
1111110010100100
1111010110110110
1111100110001000
1111000011010100
1111100001011000
1111101101010101
1111000010101011
1111101110110101
1111110110110100
11100110011
101000000001
10011
100111101
1111100111000100
1111111110001010
11000101111
1101010110
1111100001010000
11000010010
1100110111
1111111110001010
1010111111
1101010110
11001100011
1111111100001111
101011000110
10100101000
10000001000
11011001110
11010011
1111111100000010
1111100101110100
11110010
1111110101111000
100110010
100110001000
11011101110
101010011010
101001110110
1000101110
110010100001
100110100101
10110000010
110010011
1111111000011110
1111111101000101
100100010110
100000
100101001
10100101001
11001001111
1000000000011
111111100
10011100110
1000011010111
101101110010
1000101010110
111000110011
100100101010
100010100101
100000111110
111100111110
1010001011101
1000111000000
10110001100
110000100000
10100001100
10000101011
101100000111
110011111
1110000000
11000010011
1111110001100000
1111011111
111100100110
1111111100101001
111111
1010011010
100000001101
100001000100
1111101110111010
10000100110
111001111
101010101001
101001111000
101100111111
100101001010
111010000110
111101111010
1010110100000
1000011011011
111100001001
11011001001
101001011110
11111001101
100001001011
1011101010
10101100111
1011001010
100100111011
1111111000011011
11110001001
100100001011
1111111111000100
1111101
1111111101101010
110110000010
100010000010
1111101101110100
1000111
1111111010000110
10001100
11001110111
11100101101
1110010111
100111101010
1000011011101
1010010010111
1000100000110
1001100000111
1000000010010
111110110010
111011000100
100010001010
10001001010
1111101110
100100100
100000000100
10001010001
101001111010
101001000110
100011
110111
11000011
1111111100100100
11000001100
1111100110001010
1111101000001011
1111111110000000
1001100
11111110
1011010000
110000110
10000100000
111010110000
111100011100
1001010010101
1001101110000
1000010100110
1011100000
11000101100
10001011110
1111111001001000
1111110111110010
1101100100
1111101000101010
1111111000100101
100000000110
101011010000
1111111110001011
100001111
1111111011101010
1111111010000111
1111101101101100
1111110001101000
111011000
1110100110
1111111011110011
1001100110
101010101
1111101111001001
1111100001011010
101111101
11001011101
111011100
1111110110
101110010
1111111011000000
1010011001
10110101000
10100001
1111010101010100
1111101100000110
11111000011
1000111111
1111111111110011
100001010110
11100110
10001
10010000
1111111100001010
1111011110001000
10101011001
1100010110
1111011010100110
1111111011001011
1111101100101000
1111011011111010
1111101111000100
1111110110111000
111110
1111101110001011
1110111011110000
1110111111000001
1111010010101111
1111111000010101
1111111111100001
1111101011001101
1111101110001010
10111000
10000010
1111011100010110
101101011
1111111111001111
1111111110011010
1111111100010001
1111111111110010
1111111100100001
1111111111001010
1100111
1111111010010001
1111110111011111
1111111010111011
1111011111010011
1111011000011111
1111010100000010
1111000100101110
1111101001100011
1111111010110111
1110101100111010
1110011010000001
1111001100110010
1110111100101101
1110011100011100
1111000011010001
1111001101001110
1111001101011110
1111011000100000
1111110111100001
1111110010011110
100100101
100101000
1111111111011001
10111001
