1111111101111101
10000110
1011110
100101000
1111111101001000
1101
1111111011001100
11110111
1111111010101101
10010110
111101
11010010
1111111111010011
1111111001011001
110001100
1111111100010010
1111111100001110
1111111011000011
1111111101110010
1111111110010101
1111111011110100
1111111011110100
1111111011000011
100010111
1111111110101100
1111111100101001
1111111011011100
111010
1011001
11010
1111111110101011
1111111010111101
1111111111110000
1111111111010011
1111111001000011
101100111
1101101
100011010001
11100100000
1111011001011111
1111011011001111
1111100011001111
1111110000000000
1111011010010000
1111100101101101
1111100101001011
10101010001
1111111100100100
1111111100010101
1100011
1000010
1111110101010001
1111111111101011
1100111
10001011
1111111101100110
100000011
11100100
101001100
1111100110101010
1111100111111001
110000001100
100011110000
100101110110
100101011001
101010010110
101000000010
11100110101
1111111000111001
1111100110101011
1111101010100101
1111111100101100
1111110110001000
111010011001
1001111111101
1000110110110
1010100000101
1010111011010
101001001100
1000001101
1111100100010011
1111100111001100
101010111
1111111011101001
1111111101100010
10101000
1111100010110001
1111100010101101
1111100101010101
11111100000
100101001101
10111101011
100001111100
100010000001
1010010000
10111001010
1100001010
1111111011110100
1111110110100001
1111111000000000
1111100111101100
1111111000011011
10010100010
11001111010
101111001
1110100100
101001101111
100100101011
10110110111
1111101001100000
1111100111111000
1111111111000011
1111111101010100
1111110010100100
1111100011111000
1111001010111011
1111100000011011
1111110010110010
1111110011000011
1111100100001100
1111110011101010
10011111100
11010111011
1111110100110111
1001111111
1111110110110100
101010111
1111100101010111
1111100000101010
1111101110101011
1111100100111110
1111100110010111
1101000001
11010000010
1111101111000101
10011010110
101000100101
101101100110
1111101001010111
100100101000
11100000
10101100
1100011
1111101110000011
1111001100001100
1110110011011101
1111000001001000
1111010111100011
100011000
1111111101110011
1111101101111001
10101110011
110111100001
10011111101
10011100110
1111011110011101
1111011100010001
1111110010100001
1111110101110000
1110100011
11000111000
1111111110101010
111000110
10010101001
111010110011
101101111101
10010010011
101000001100
100
1111110001001101
11011010
1111001101011100
1111010111000010
1110110110100111
1111001110101011
1111011111001000
1111111101100010
1011010101
1111110011110001
10011100
110110011
1111110111010001
1111110111010010
1111101100010111
1111101100000110
1111111000001110
1111111010001111
1111110101111011
11101000101
1010010000
1111110100010110
10101110011
101001000000
11100010100
1111001000
1010001010
11011000
1111001100001100
10011101000
1111010111111000
1111011011010110
1111111010110111
1111110000101011
1111111100011101
10111000
101100011
10110010
1111110100111110
1111100010110101
1111110111101100
1111111011011101
1111111101101010
11110000
1111111010110100
1111111111011001
1111110011010100
1111110110010110
1111110010111000
100011110
1111101000100110
11011010000
1100111001
110011001111
1111110100010101
1111011010100001
1111111100010111
1111110110010010
1111110110011010
1111111100001000
10000010101
1111101001010111
1111111101100111
1111110101011110
1111110110001011
1111100010101011
1111100000101001
1111100001011111
1111111010111011
1111101100101110
1111110000001011
1111101001011010
1111101110100111
1101010
1100110
1111101111110110
11101100000
10010001101
1111100100000011
11111111
100000110010
111100110111
10111010010
1111111010010111
1111010000000010
11010011111
1111111000000000
1111110100100100
1111110100001000
1111111110101010
1111111011100111
111011110
1111110101000101
1111101011110101
1111100010010111
1111110101101001
1111011100101101
1111010111000111
1111010110101011
1111010101010010
1111100001110100
1111111011010111
1111111011101101
1010000010
11000010111
111101000
1111110100011110
1111101100101000
111110111
110011010111
10100111001
1111101111110100
1111010100001111
1111001010001111
1111101011101110
10000101010
1110100
1111110011011101
1111100111111000
1111100111111100
1111110011110001
1111101100101011
1111110111010001
1111110011001110
1110100000101011
1110011101111001
1110101100111011
1111010010111111
1111010111111010
1111101011110101
1111110101111100
1111111001110011
1111111011000111
1111111111110011
1000100101
10001001011
11100000000
100010010
1111111100101100
1111110100101111
1111001000101000
1111110100100110
1111011001010101
1111011010010100
111101010
1111111001000010
1111110001111100
1011101
111001000
1011000010
1111110000010101
1111100011001110
1110100010111000
1110011101000011
1110111100010000
1111101100111010
1111110001100010
1111100011000000
1111110100001000
101100100
101010110
111111000
10011000
10110010000
111011100101
1111110011010001
1111110110100111
1111110111010011
1111010001111000
1111101100101000
101101100
11011001
1111001101
11010101
111000100
10010000001
1011010
1111111100101110
1111110100101011
1111100001100101
1111100111110100
1111110000010010
10001011111
10101100011
1111110110001111
1111011110110101
1111111010001101
1110100001
10010100111
1101110010
100010100110
10110111110
1110000101
1111101100100110
1100
10110110
1111011010010101
1111010100111110
101010110
110111111010
10101111110
1111001111
100001111011
11000110101
11010001001
100000010100
1011011110
10101100001
110010001100
1000010100001
1001101010001
101010111010
1010101011
100100111
1001010001
1101100111
101000011
1011010011
1111110010111001
1111111110111111
10011101100
100110010011
11100000000
11011010000
1111101111000101
1111010100111011
101001000
100001010100
11000001100
11000000000
100100101000
11110110000
100100001100
10011011011
11111101100
100000111000
1000101110111
1001000001000
101100111011
101010100111
1010000111
1111101101011010
1111101111101110
1111111101010011
11100110
1111101100111000
1111110010011001
1111010110111011
1111111011011010
1111110100110001
1100111011
1111010010
1111101010101001
1111100101110111
1111100010001101
111010110
10100110001
11001101
1010110100
101001000100
10111100011
10000111011
111000000
101011100011
111001101100
100101000001
11101101111
11011010100
1111010000
1111111010011101
0
1111111101010000
1111000001
101011111
1111111000000100
1111011001010001
11010111000
11011111101
101101111001
1111110010001111
1111010011111010
1111100010100111
1111110001001000
1010010010
1110010100
1010110001
1110010010
10110101111
1111111111001100
101000001
11010001100
111000100111
101101010101
1101000100
10100001010
10110111011
11111001100
10111000100
1111111000111001
1111111101000010
11011000
10001000011
11110001
1111101011011111
1010111101110
1000010101001
1100001100
1111111011011000
1111011100011001
1111111001100011
11001101
10001111110
1011110111
100011001011
1010001101
11100001101
10010010
1000011111
11101010011
110101100110
10111111110
1001101
1111110011
11001100011
110010101
100001111
1111111011011111
1111111010000110
1111111010111110
1111100011100011
1111111000011110
1111100110001001
10011101
1111101111110100
1111111100001111
10001011001
1111100110010100
1111101001001100
10000101001
11100000000
11000010110
100001001011
10101010101
1111110111
10011110010
11011111100
110011100100
111001101000
10110111110
111001001
1111111101001100
1111101110101111
1111100101111010
1111101001101001
1111111101001101
1111110000000001
1111110111000011
1111100000110000
1111101011111001
101110111001
1000110000
1111101110011000
1100010011
1111111111001001
1111001110101000
1111000110000010
1010100100
11101000101
101011011110
10011101001
11101111000
11010111011
10001000001
100110100100
110011101101
10110001101
1111111100010110
1111111011100001
1111111011101001
1111110011001000
1111100000100101
10101100001
101101011
101011001
1111110110000111
1111011011111001
1111111101000010
1111111001100110
1111111010010000
1010000100
1111100010011000
10100111
1111010011100101
1111010100100000
1111101110001001
10001111111
11100000001
10111001001
11011010001
11000000100
10010010
1110000001
100100010
1111101000111001
1111101011111101
1111100011101000
1111111101111111
1111111001101100
1111111111010111
1101001000
1010000001
1000000101
1111111010111001
1111101000001010
1111101101011011
10000010
11100001010
1111100111100110
1111101010101110
1111111110100001
1111110101001000
1111001011011110
1111110111000101
1111111100101100
1111111111111000
1000011001
1100111110
100000101001
1111111001010100
1111110110011111
1111101111111111
1111101011110110
1111101011110111
1111101010011111
1111110110101011
1111110111111001
11000110010
1111111001101011
100110101
11000110010
1101110011
10111110
1111110000000000
1111110001101110
1111000
1111011111010110
1111110100111100
101110100
1110101
1111100001110100
10010000011
10001111110
101101100
1111111111011111
1111100111101001
1111110011101011
1111100001000011
1111101110100100
1111101001000110
1111101001100010
1111100011100110
1111011110110000
1111101010010110
1111111110011101
1100000001
1111111010101000
1111111010000001
1111111001110000
1111111000110101
100101011010
1100111111
11100000010
1111111100010001
1111100111110100
1111101110001101
100110010
1111111110101000
1111101101000110
11110000000
1111110010111001
1111100010101000
1111011001000011
1111011100011100
1111110000111001
1111100001110100
1111100100101001
1111011101110011
1111100111001011
1111101001110011
1111101000010110
1111101000101000
1111101011011110
1111110010011101
11111111
10011110100
10011001101
110100011001
111111000010
11100110011
1111101001111111
1111111110110000
1111101100100011
1111111111111000
1111111101111100
10011100
1111010111000001
1111001010100101
1111011011010111
1111010010100010
1111010110111011
10000110
1110011011
1010010011
1011011100
11000111001
10000101010
101110110
1111101010000010
1111111000110000
1111110111110110
1111111100010110
100011010001
100010010101
101011001011
101011001000
100110010011
110000100000
1111101000001010
10101110001
1111011100011011
11001010
1100111
1111111101001011
1110011111
1111110111010110
1111100100001000
1111011101110010
111001011
110000011
111000110
1010110111
11010100110
111110010
1111111100100010
100001110100
101001000100
11100111111
110011111
100010011110
10001000000
100100000010
101010101111
1000010001100
110010011101
1000011110
1111010001111001
1111101111110000
1111001
10100000
1111111101101011
1111111110001101
1011101
1011101001
110000110011
100100100
100010100000
100101101101
11110110000
10110010010
1011111001
11011001001
110101101110
100111010110
110111100010
101110010000
100011011100
100101100111
1000011111
100101010
101010000010
1010000011101
11110001011
1001111
11010110110
1111101111000001
10010001
1111111110100000
1111111111001111
1111111011011001
1111111010111111
11000111
1111101010000000
1111100011001111
10101100101
1000110001
111000110
1001101100
1111101110111000
10111011101
100010111100
1111110110010011
11000100000
100000111110
1001011110
1111101111101111
1111110110101111
10100000001
100010101011
11010001110
1101100011
1111100101001111
1111111101110100
1111111100010001
0
1111111111011100
