11111110
1111111110010101
1000000
1111111110001011
11000
1111111011001101
11011000
1111111010111100
11000100
11
10100110
1111111011100101
101110
111000101
1101011
1111111100110001
11010010
10010110
101010010
100000111
1111111011101101
10111000
11100101
100000101
100001010
1111111110001110
1111111110101111
1111111111111011
0
1111111110010001
10010010
1011010
10111011
1011101
10111010001
11110000000
11100011110
100110111110
101001110011
101100001011
110111100111
111000101101
101011010011
100001110010
1010101001
11010000010
100011100001
100001000110
1110100100
10001101001
11010100100
10110110010
10101011
1111111011010111
100000010
1111111010100111
1111111100001110
100101111
1111111101011100
10001101110
1111110010
10010001000
11001011000
111000010010
1110100111
1101010001
1111111111100000
11100011010
1011000100010
1110111000111
1000010001100
11111010101
110100010011
1000001001
1111110001011111
1111111010011011
1111101110010010
10001111110
1111111111010101
110011000
1111111101100110
1111110000100010
1111111011011011
1111111110011010
1111111111111001
1111111100101101
1111101111011100
11011011110
10000000000
11011
1111111000101100
1111101100101011
1111111001100000
1001010000
1000001001
1111111111011100
1111111110100110
1011001101
10001001110
1111011110
110011010010
111100000111
11100000011
10110001110
1100110001
11001010110
11001000101
100011100011
1111110101000001
1111111111000010
1000111100
10010100
11001
10010110111
1111110101011000
1111101101001010
1111100011000111
1111101000010001
1111110000101110
110011111
1111110111101111
1010000010
1111111111100010
101100001
1110111101
1101000011
1111111000100001
1111101000010111
101
1100101111
10011110101
101010010110
110001111110
1011001110
1111110111101110
1111111000100110
10010100
1111010000110001
1111010101111001
11010010001
1111111100110000
1111111110011000
10110000100
101011111101
1011101001
1111011011010011
1001010
1111111001110100
1100111
1111111010001101
110001001
1111111011111100
1111111001011001
1111110110110001
111110010
10101100110
100011101
1111111011011110
1000111111
1000110101
1111101101111011
11101101
1111101010010010
101100001
101100010
1111111110110110
1111010011000110
1010001110
11111010
101110100
1111100011001000
1111101110001101
1111101111110100
1111001100011000
1111111010100011
110001011
1111110110001111
1111111101001010
1111111101010100
1111111101101011
1111110111011010
111110
1111111001111001
1111111101010001
1111111000011111
1111111000011111
1111110011000011
1111110101010100
1111111001111011
1111101010100110
1111110100110110
10100110000
10011011001
11011110110
101110000
1111111100110110
101010000
1111101001000011
1111010111100010
1111100111101101
1111111001011011
1111101101000010
1111101111011011
1111110100010000
1111110000100101
1111111001011101
1111111101001111
111110111
1111110011010111
1111111101000010
1111110100010101
1111101111111001
1111101011000110
101001001
1111101110101010
10101011
1110001100
10100101101
100101000110
111110010001
110110010000
111111110000
110010001101
1111101111110111
1111110110
1111111010011101
1111101111101111
1111110111011100
111110000
1111110111011011
1111101111111010
1111110111110011
1111110001111110
1111110101101101
1111111101110000
1111110110111000
1111110001011010
1111111101100010
101001100
1111110101001111
10100001001
10101011110
11011000010
11010001000
101011110100
10110000100
11010110001
11001101110
101000110000
1000000111101
110100001
101001101011
1111101011000000
1111011100001010
1111110101000101
1111100000001010
1100101101
1011000011
1111101010010111
1111101110001001
1111100011110000
1111101001101110
1111110110011001
1111101001111101
1111100101111000
1111100101010100
10100110
1111111111011001
110000110100
101001001110
101010111110
11010101010
11101110111
1111111110111100
1111110110010110
10000000111
1011100010
1110100001
1111011110010001
1111101001001011
1111101011011011
1111100111110010
1111110110011110
1111100101101111
1111111000100100
1111110110011010
1111101001001100
1111111000010110
1111011101000110
1111100001011101
1111110111111110
1111101100000100
1111101010000110
1111110000011001
1111111000000101
11001110110
100110110111
11110000001
1000101
110011
1100011000
1111110010110010
1010110000
11001010
11010100100
1111111000100010
1111110100011000
1011100110
1111110111101000
101101000010
1111100010111011
1111101001000000
1111101010111011
1111111001111111
1111110011100100
10000
11000011
1111111010101011
1111111110011010
1111111010001101
110011001
101111110
1111111111000110
10001110001
11001000000
1111110000101010
1111101111111011
101010000
110010110
111100
1111101101011100
1111110100010011
100111110
1111011010010001
1111001101101010
1111110101110011
1111110011001011
10100000011
1111010111101011
11101010
1111110111000100
111100100
1111111010100111
1111110000111001
1111111100110111
1111110000111101
1111111010100110
1000111
1110000011
1001110101
100000
10001010110
1010110111
1111110100010101
1111111011000100
1111110101001111
1111101100110100
1111100110000001
1111011011111010
1111011010100010
1001011111
1111101000000100
1111000000011001
1111011000110001
100010011
100001010011
1111100010010110
1111100001101101
1111111111110110
1111111010111100
1111100110111010
1111100110100011
1111101010001100
1111110101001101
1111111001101101
1111110001101111
1111110100110101
1111101011111000
1111111010110000
1001110110
1111111111001011
1111111010111000
100010
1111111010110010
1111100110111111
1111101111000110
10100000
1111111101101010
1111110100011101
1111101111100001
1111100111100010
110001010
10111111011
10000001100
1111
1111101100
111110100111
1100011000
1111110001111011
1111110101101011
1111110101100111
1111101100011010
1111101100010101
1111101110001001
1111100100101010
1111101101101110
1111110000101010
1111110100101010
1111111001110101
1010101110
10111001010
11110001001
11000110101
1111111001110100
1111111000110010
1111110000100100
1010000
11010110
1111111101011111
11000111111
1100000001
10100010
11110100
100001010011
1011001000010
101111001001
101000001001
11010010100
1111111110011110
1111111110011110
1111101110100101
1111100111011011
1111100100110101
1111101111001011
1111110100010000
1111101011110010
1111111110101111
101110001
10010000011
10111110100
110101001
1111110011110011
1111111101110101
1111101101001000
1111100101010100
1111110010001000
1111111100010100
110010
10010110
110101101
1111100010100100
100101011001
1001011010100
1110111111010
1101111111001
110101110001
1110100011
1111110010110010
1111101011000100
1111110101111000
1111110111010010
1111110010100101
1111110101100011
1111111010001111
11001010
11101001
11010111000
100101001
1111110000
1111111111100000
1111110011101001
1111101100010101
1111110010001010
1100111001
1111011011011000
100111000010
1111111100110011
1111111101100001
1111010101000110
11000011000
1000100100111
1101100010100
1111001011111
1001101001001
1010001111010
111000000111
100111101111
11100010000
101001101
1100110001
1010
1111101011100111
110110101
100001110
11101
1111111100010000
101110001
1111110110100001
1111110100000100
1111110000111001
1111110110101110
1111110001010101
1111001111001000
10100110000
1111110111100010
10101101110
1111001110000101
1111001110100110
1111111100
1000001101010
1000111010101
1001001001101
1101000110001
1111011011110
1101101110111
1100011011111
1101101001010
1010101100111
10110100111
1010101010
110100111
1000000101
1110011110
11100010
1111111111111001
1111101111110111
111100101
1111110000100110
1101010010
1111110100000010
1111011011110111
1111111011000000
1111111110101011
1111100100100110
1111010000010110
1111000001111100
1111111010111100
10001000111
11011010
11101111110
110101000001
110001010110
1000110001000
1011000000100
1001111111000
1001110110001
11110101000
1111010111
1100001100
100100100
101011110
1111111011111101
10000101010
1010100001
11111111111
10101111111
1000000010
1111010011111001
1111111111001100
1111111001110100
1111111101011100
1111111001101011
1111101110111111
1111010011111011
1111011001100101
1111101001001001
1111011110111000
100100001
1111110101101011
1111111001011001
101010
10100100011
100010101110
10101110001
1010111100
1111110101011100
1111110011100111
1111110101000000
1111111100111011
1111111001001001
1010101100
10000001100
1111111101011011
11001011
101101001
1010010010
1111110011010011
1111100110110100
101100011
1111111101010010
1111111111001011
1111101011110010
1111011000011111
1111110000100011
1111100100101000
1111011010001000
1111101000010111
1111100011011100
1111100001101100
1111110010111100
1111110010101110
1001010011
1000111000
11101101
1111111110010100
111101100
1111110100101011
10100011
1111101100000111
1111110001000111
111101111
1111111101101001
1111110010010110
1111111111011001
1001010
10010100
11
10011
10001101000
1111100010011111
1111011011100100
1111101001101010
100101110
1111110101111111
1111101100101000
1111101100110100
1111101001010001
1111101111110001
1001001001
111001001
11100000
10001010110
1111110100
1101001010
1111111101010111
1111100001100101
1111100001101001
1111111001100110
10010111010
1101000011
100000011001
1101111000
11111110011
100001010
1001000
1111111011010100
101111010
1111010101101100
1111010001110111
1111011111111110
1111110010000101
11100101
1111110010011001
1111101110011111
1111101101110100
1111110100010110
1101101010
1111111101110011
1111111010101001
1011011111
10111001011
1100011101
1111111010101111
1111110011111111
1111110001100001
1111100101100101
1000011111
11010100001
1111100101
101010010
10110001100
101000011
1111111111001111
1111111011110101
1111111110100101
1111101111100000
1111101100000110
1111101010110001
110010101
1111110110101111
110011
1111110111100100
1111101110100011
1111111011000101
10010001010
11000110101
10110100011
11000110111
11100101111
1010000000
1001111100
11000
1111111110101110
1111101001110011
1111110110111011
111101011
1111110111110110
101101111001
100111110011
1111111011100011
101001010
1111111011010000
1001000101
10111000110
11110101010
1111011010010111
111000110
1111111100101110
1111101010110011
1111011001000010
1111111101011001
1111111110101110
1111101111111001
1111110010101011
1111110101101100
111010111
1111110011001011
1111011100111001
1111001111011101
1110100010111001
1111010110011110
1110110001100000
1111001100010100
111000010
1111000011110101
1101110
10000001011
1001011
10011101
1111111010110101
101010101
1111110000010101
10001000010
1111010000110110
1111010110011111
1111100010010000
1111110101001110
1111011110100100
1110111011101010
1110110000001110
1111010010110001
1111001101001010
1111100001010010
1111010011100001
1111000100000100
1111000110100001
1110101110000100
1110110000110111
1110110011111101
1111110101000001
1111101101001000
1000010001
111100100
1111111010000011
1111111110000000
111000
11000000
10111101
1111111111111001
100101010
1100111010
10110011
1111110111010000
111100000
1010001000
10111100101
1111110010100010
1111110101001100
11001111101
10001100000
1111010110011001
1111011100100011
1111101100011010
1111011110000110
1111011000101101
110001011110
111001000011
110101101110
10010100101
1110110011
11000101
11111001
10100000
101000100
