1111111011011101
1111111111001111
1111111101001010
10010
10101101
1111111010110100
1111111100101001
10100001
1111111101101001
1111111010100100
1111111100000100
1111111101110001
1000011101
111001001
11101011
1111111100000100
100011011
10110
1111111010111010
1111111011010111
1111111011100011
1111111011101000
1011001
10111001
1111111101110001
11001000
100001111
1111111110011011
1111111101011100
1111111110000011
1010100
10010101
110010001
1010000010
1001110100
1101000111
10011100010
111011001
111101011
100000100010
101011011010
11110000001
1111111100100011
1111111110110101
1111110010100110
11001111101
11000011100
100111001011
101000000
1001110001
10001000100
111010111
100100101
1111111010101101
1010010
10100011
1111111010100100
100111100
101000101
100000110011
1101100110
1111101001110101
100000011100
100001010101
1111100100101100
1111100011110111
1111010110101100
1111011010100100
1111011110010011
1111110100010100
1111001111001010
1111011011001000
1111111100001011
11011011100
1111101101101011
1111110001101110
1111101000001100
11100111011
1111111100101000
1111101111000001
1111101101001100
1111101010001001
11010001
11011000
10010011
1111111010101111
1001110
1111111010000100
1111100111100000
1111111111010110
1111100101011111
1111011010110101
1111011101001010
1111011111001100
1111101000111101
1111111110011001
1010010
1111101101000000
1111101010001110
1111101000110000
11111000011
11010001101
1010100110
1111110110100010
111011101
11000101000
100100111100
10111000001
1111100001010110
111
1111110000000100
1111111100011000
100100111
1100111111
1111111111000001
1111100000101100
1111110001001101
1111100100000100
1111110100100010
1111101001110110
1111011101111110
1111111010101001
1111110100000011
110001000
1111111110001100
1000110010
101110
1111111111000101
10001001001
11001000111
1111111000101011
1011101
1111111010111000
1111110001111011
1111011001
11111111110
1111101011100010
1111100001001110
1111110111001001
10111110110
1111111010110000
1100000
1011000111
1111111100001101
1111111010000101
1111110011000000
1111111100010100
1111111011001011
1111111101011010
1111111000111101
10011101001
1111110101110000
1111101110011111
1111111000010011
1010011110
1111111110000111
1111111101101010
1111111011001001
1111110001010010
100110111
1111110110000100
1111111110001101
111100000
1110110010
1111111001000011
1111111100000000
1111100001111100
10011000000
1111111100100010
10110
1100101001
100111000
1111111000101011
1111111101100001
1111111011010110
10111111100
1011010101
1111001
1000001
1111111110101001
1111111001101011
1111111000100110
110100110
1111110100001110
1111111111011001
1111111010110001
1111110001100010
101010110
1000000011
110000111
100100000000
1101110
1111001110001111
10000001000
1111010000100110
1111111001101001
1111111111101001
1111111011101101
11100011111
1111111010011111
100111
1011101110
10010010000
11010011010
110001
11111100
1000000100
1111111100101100
1111110111001000
1111111010111010
1111011110010101
1111110001010101
1111110111000001
111000011
110111100
1011100001
1111101111110100
1000001100
1111111100011000
1111101011111001
10111000001
100011011010
1111110111100011
1110101101
100101001110
1011000101
111111011101
100001010010
101010000111
1001100000
1010011110
100001111
1100101
1000010101
10000101
1111111000111000
101111000
1111110011101011
10000111
1000110111
11011101110
100001001000
10000001000
11010101110
10010010110
1111110010110110
1111101110101101
1111101101111011
11101010110
1011010000
11100101000
1111101001101101
10110110110
1111101101101101
1011110000000
11011001110
11010010100
10110001010
1000111100
1111110010010110
1010101110
1110011001
1001011100
100010011
1101011101
10101101010
11100110011
10010100101
100111000111
10100011011
100101101010
110101011000
11001100111
11110011000
1111101010110000
10111011101
101011100111
1111101010111010
11000100
1111100101
10101000011
10010000
1010001101100
100100110001
1101010100
11110111
1111111110011111
1111110000000000
1111111010101111
101100010
1000001101
1011001010
10000101000
1111111001000111
1111101011101100
1111110110000100
1111101110010010
1111110010111001
1010101111
10101100000
101010010001
101010010111
110011
100101001001
10000111010
1111111100111000
10010111101
101001111110
1101111110
1001101110110
101101101000
10000010010
1111110100000001
1111110011100101
1111111000111010
1111111011001000
101010
1101001100
1111110100010000
1111111010110001
1111101110010110
1111001111011001
1111001100111101
1111010011011101
1111101001001111
1111100000100101
1111011100011101
1111110100110101
11000010101
100001
1101000
10101011000
100110001
1111100100000111
1111110110100110
1001011011
101010000
1001011010110
1010101
1101110111
10011000
10011100011
1111110011101000
1111100100000111
1111110110110100
1111111110111011
1111110101000011
1111101001011011
1111101100011001
1111011011100100
1111010111000010
1111011101111101
1111110010000000
1111110000000010
1111101001011111
1111110010001111
1111111000001000
1111101111100100
10111010111
100110100001
1000010011111
10000011100
1111010011100100
1111010110101111
110010001
111100111101
110011111
1111110000100001
1001110100
10001010100
1001111000
1001001
1011011010
1001010110
1110110
1111110110100110
1111111000101110
1111101001110010
1111101101111111
1111111010110011
1111101011011111
1111110010010110
1001001011
1111111100010010
11010111
1111100110110101
1111110111010000
101000000111
100011011011
11101001111
100100101
1101001100
10011000001
1111111100110010
110011110011
1111110100011010
11110111001
1000001001001
11111010100
10011011111
100100001011
100010010100
1000101000
1100101111
1111111111101101
1011010011
10010100000
1001001110
100000011
1111111011010010
10100111100
1001000110
10000001110
1111110011110100
1111101010111011
1111111101100001
100100010011
10000011000
10010110111
100011110011
11110100110
1111111111001111
1111111001111001
1111111101101010
100010001001
1001101011011
100110000110
111110111010
1010111001110
1100111100101
1000001101110
111001010111
1011111011
1111111110100100
10011001010
1100101111
1011110010
110001101
11110011
1111101101111101
1111111000011010
1111101000011000
1111110101101000
1111101110010000
10011111101
1111100011100101
1111101001101011
1111100010111011
11111111101
10100110010
1111110000001110
1111111000001010
110110101011
110000110101
100001110001
110001001100
111001011101
1110000001110
10000111111110
10011001001110
1110110011000
1000010001100
100111001100
10100011100
1011001101
11111000000
1001101001
1111101001110100
1111100110001111
1111101010101111
1111101111001100
1111110100011101
10001
10001100100
1111111100110011
100000001011
101011001
1111101011111101
1111011100001110
1111110111011000
11100010010
1111111010111111
1111110110100000
1111101101000110
10011111
100111111001
1010110011000
1011100000001
1010101001011
1001111101000
110101111101
101011011011
11011000101
1011010010
10010011000
1111110110110000
1111111010010101
1111110010000010
1111110101100001
10001101
10111001
11001010100
1111110100010111
11000100111
1111110001100100
1010010000
1111011001011011
1111110110111001
1111101111010110
1111101001110000
1111101101010101
1111101010111111
1111011010010001
1111100011010000
1111111111010100
1001000000
1010001011
10011111011
1110100111
101010101000
1111110110
1111110111100010
10101100010
1111111111001010
10101001011
1111110010100111
110110000
1111110101000100
1111111111010001
1101011011
1111111101111100
1111101001111010
1111110101110010
11110
100110111
1111110101110010
1010111
1111110100011100
1111110011101011
1111100101101110
1111011101000100
1111011010110010
1111010101110010
1111100010001011
1111010010100110
1111110010010111
1111111100110101
1100001101
10001101111
1011100
101010111
111001110
1101010110
1111111001010100
11000010001
1111111110101001
10101010
1111100010111000
101000110000
11011011
10100010
1101100000
10111101110
111111001
110010011
1111110111110001
1111101111000010
1111101010000011
1111101011101001
1111100110101101
1111100100111011
1111011101110110
1111100110101001
1111110010101011
1111111000111111
10110101101
10100000100
10011
110110011
1011001111
1111111111010000
10011001
1111111000001110
1100100111
111000001
10000000001
100100001010
1111101001111001
101010000
1111101011101011
100000100101
11111111001
100001001110
1100110000
110001100
1111110001111110
1111110101101110
1111110011101000
1111101110010101
1111101001000011
1111100111100000
1111100101011111
1111101111110001
110101010
11000000000
1110011111
1000111110
11101101101
1111111010000101
1100000000
110101010
1111111001101010
101101011
1000010100010
100110101100
111110100
10101
1111111101110110
11010110001
10110101001
100010110010
101000000011
10001110001
10000001
1000110
10111
1111110001010101
1111110011111010
1111111110011011
1111110000000001
1111100111010011
1111111110000111
10000000111
1110100010
10010110100
100110001
10100000010
10000010000
1111110111011000
1111011001110111
11100101000
110000100001
10011101111
10010000000
1111111010111111
1111111101000110
1111101100010100
1111101111001101
1111011011110111
10100010110
1111111101111100
1111110101000011
100100001
10000001011
1111111100100101
1111111110100001
1111111110111111
10001010
101110
100010110
101000100
101100101
1111100110110111
1111100111100100
101100010
1101001010
101100100100
1111110101000000
1100011010
10010100000
1111111101111010
10000
10010010
1111111111011111
1010101110
111011100
1111111010101010
1111110010100010
1111100011000100
1111011001111001
1111111100110101
1111110110110110
101100111
1111111110001001
111111110
10001100010
11000000110
10001100010
1111111101101111
1000000010
10001110000
11011011101
1000101100
1001001011101
111011010000
100010000101
1111101111000000
101001110011
11111000110
1111111100010101
1111111010110100
100101000
10011111
1111001101
100010011100
1111110001000001
1111101000110001
1111101011111110
1011111000
1001110000
1111101010100001
1111100001100001
1111010011111010
1111110010101111
1111101100010010
1111101110101000
1111100111010110
111100011
100101100010
101010111000
101010100001
10110101000
11011010111
10100000011
1000101100
10101101
1111111110000101
1111111111110100
1111111100001011
1111111011101000
1111111100010000
1111101101101100
100000000
1111101110111101
1111110110010101
1111110110101001
110000010
1111010110111000
1111011001010111
1111010010101000
1111100100111010
1111100000011011
1111011011010010
1111010001100001
1111110011010010
11000110001
10101000001
10001100101
110010011111
1001011001
11110010101
1110001001
1111111010110000
1111111000001100
1111111100010010
0
1111100
1111111110101001
1111111100111001
1111111110100010
1110110101
100100010100
111110011101
1001111010010
1001000001111
110011011110
110001000111
110010001010
1000010011111
1011010101101
111000111110
1111111001101101
100100011
1001110001111
1001000100111
1010010100111
1001000011101
11110101001
10101000110
11011000010
1111111100101100
100100101
1111111101001001
1010000
