11101100010
1111111010011110
1000111100011
1110110000100100
1001001100101
1111101001111001
1110011101000101
1111010011110000
1111010111111100
101001101100
1111100101101011
111000000
1101000000011
1010110000
101101011000
10100010100
1111100100000010
1110100110111010
1110010000110111
1001010111110
1111111000110000
110000100001
1111111010000100
11001100000
1111010001110110
101000001000
1111001111101101
1111100010011011
1111100000000111
1111101110111011
