1111101110001110
101111011011
101010010001
11000100110
1000111101000
1111010000011110
1110111011010101
101001000011
1111100100010001
101000110010
1111011111111110
1011010001011
1111111011101110
1111111010011000
100100100111
1010001000
1111010011110110
1110111000
110110010111
110111110001
1101100110110101
101000110010
110001111
110010011000
1111110010110110
1111110001001000
1111101000011111
100010001001
1111001101110011
1110100111000111
