10111000001110
1111100001010001
1111111110100100
1100011001
101100010101
1010010110001
10001110101100
1111001001100010
1111101101110110
1111100001100000
1111111100100010
1111011001100001
1111011010001101
110110101010
1111000110111001
1111101111101101
1111000101001000
100100000110
1111111111111101
1011100110011
1011010001011
1111010000
100001101101
1110010101110001
1110110110001101
1111010111111001
110011000110
1110110001010101
11011010000111
11100110011
